#version: 0.2
t h
e n
r o
a n
s t
i n
p o
th e</w>
r e
t i
e r
o n
t o</w>
o u
a r
l i
t e
o v
l e
c h</w>
o f</w>
a l
i t
o n</w>
r a
i s
o m
o r
n e
an d</w>
l a
e d
a t</w>
p ro
i s</w>
c h
n o
s k
p ř
i n</w>
n í</w>
in g</w>
e m
s e</w>
s i
p r
o d
t a
o b
p e
s e
m en
d e
n i
n í
c i
v e</w>
a n</w>
a t
b e
c e
a l</w>
v e
o r</w>
j e</w>
c e</w>
th at</w>
t er
l y</w>
a d
s t</w>
ž e</w>
s u
n a</w>
a ti
h a
h o</w>
o u</w>
á v
a b
i l
o p
c on
r i
b u
n a
th e
m e
j e
po r
ý ch</w>
f or</w>
i t</w>
l e</w>
a c
ro p
y ,</w>
l o
w h
en í</w>
z a
m u
T h
v y
s ,</w>
m o
v o
b y</w>
e s</w>
u r
t o
v rop
m ě
m e</w>
d o
k ter
b y
s .</w>
E u
ř e
a k
a s</w>
n ě
po d
n ě</w>
en t
v ě
d i
ti on</w>
e d</w>
v i
w e</w>
l u
th is</w>
Eu ro
b e</w>
j í
c om
n á
c k
ar e</w>
a g
Euro pe
l d</w>
i m
vrop sk
př ed
r an
e n</w>
f or
h o
f i
u n
v ý
p ra
g i
a s
re s
ti on
y .</w>
í ,</w>
n é</w>
r u
ro z
d e</w>
pr o</w>
no t</w>
i ch</w>
p ar
Europe an</w>
m i</w>
př í
ou ld</w>
ha ve</w>
é ho</w>
no st
pr áv
men t
e x
ov á
men t</w>
po li
s a
v á
it h</w>
v er
k u
d u
s h
ou n
en t</w>
z á
w ith</w>
s o
c t
te d</w>
k on
ati on</w>
il l</w>
jí c
s po
g h
ta k
i st
Th e</w>
l en
í m</w>
w e
d ě
c u
t y</w>
st á
t u
t ě
ati on
r á
j s
m is
j í</w>
C om
s ou
w ill</w>
d o</w>
h od
wh ich</w>
v š
E vropsk
k o
l á
j ed
k a
l i</w>
l a</w>
m í
ní ch</w>
d ů
c i</w>
s o</w>
m a
f in
er e</w>
ou t</w>
2 0
c a
s ed
g e
u p
q u
ou r</w>
ve l
a k</w>
in g
st a
st i
c o
f e
m ,</w>
kter é</w>
v í
m i
k y</w>
š í</w>
por t
w or
poli ti
á l
po s
př i
mis si
v a
ha s</w>
le d
ý m</w>
z em
n ov
si d
P ar
om is
ab y</w>
h e
n u
Com missi
ž it
al l</w>
ová ní</w>
p an
it u
t e</w>
á z
bu d
t r
E U</w>
t ře
ro v
b o
re sid
j ak
d a
be r</w>
m u</w>
t s</w>
a li
at e</w>
ov at</w>
m in
g u
před sed
P resid
it y</w>
te l
al so</w>
U ni
d is
ř í
g ra
k la
sk é</w>
u ni
the r</w>
c oun
por t</w>
pra v
fin an
é m</w>
t en
k e
t om
p u
c ti
m y</w>
st an
t ra
e s
s v
j i
í ch</w>
' s</w>
st i</w>
b i
t é
f ro
ce s
w ould</w>
le žit
ní m</w>
ř ed
u je</w>
z a</w>
u ,</w>
js ou</w>
m an
l o</w>
M em
st e
k e</w>
ch o
er s</w>
en er
p la
fro m</w>
č len
mu s
M r</w>
li d
f a
k u</w>
s p
vě t
S ta
z e</w>
an t</w>
í .</w>
v í</w>
pro b
a p
é ,</w>
em e</w>
j m
W e</w>
sh ould</w>
h la
le g
nost i</w>
f u
ž en
d y</w>
ci al</w>
le č
ent ,</w>
e ,</w>
t ri
mu st</w>
ž i
se m</w>
t ,</w>
ní ho</w>
K omis
te s</w>
č e
i r</w>
se d</w>
p er
n áv
re a
li a
d ,</w>
d em
á d
z d
no st</w>
p re
pr á
p le
Mem ber</w>
al e</w>
s l
o d</w>
d ob
b ý
g o
p l
č in
s y
bu t</w>
e vropsk
st řed
z na
te č
f o
it s</w>
sk ých</w>
tion s</w>
d ing</w>
n á</w>
al ly</w>
o t
20 0
u s
c t</w>
n ých</w>
ou r
or e</w>
me z
de r</w>
ver y</w>
n y</w>
jak o</w>
be en</w>
př e
a jíc
e f
stá t
st ra
e .</w>
no u</w>
Par lia
bu de</w>
on e</w>
E U
c an</w>
p a
in c
bý t</w>
h u
ob la
j i</w>
u se</w>
té to</w>
c y</w>
I t</w>
v ed
te r</w>
Presid ent,</w>
spo leč
im port
t ing</w>
om i
s pe
the ir</w>
cu l
z práv
k a</w>
u p</w>
c al</w>
ri gh
w a
ů ,</w>
p res
m ore</w>
c í
su p
i ,</w>
re gi
d s</w>
j sem</w>
s ob
v z
c ov
r is
mo ž
n ý</w>
po z
ti v
a m
P an
by ch</w>
e con
t í</w>
ce ,</w>
Commissi on</w>
E vrop
vě d
Evropsk é</w>
z en
ab le</w>
kter á</w>
p ů
ne j
í me</w>
ý mi</w>
t h</w>
w as</w>
y e
for m
l é
i r
t ur
a m</w>
ce s</w>
cho m</w>
tak é</w>
s itu
li ke</w>
g e</w>
c o</w>
vš e
y ou</w>
á ř
Th is</w>
t ran
js me</w>
předsed ajíc
náv r
m ar
st ru
č ní</w>
ch ,</w>
ál ní</w>
pr i
n o</w>
k ra
jíc í</w>
a ,</w>
s i</w>
mo h
v is
předsedajíc í,</w>
in ter
k te
or g
t .</w>
dě l
na š
ř í</w>
ck é</w>
c er
or i
ov é</w>
ne s
f un
u s</w>
ar y</w>
dů ležit
b le</w>
z e
sk u
be z
su r
j ak</w>
I n</w>
Commissi on
c tion</w>
ch an
f er
pro střed
the se</w>
d á
ů .</w>
so ci
t ro
kter ý</w>
ag re
l ou
ne ed</w>
od a
m it
pro du
p en
la ment
be t
ku d</w>
e r</w>
c ur
m ak
n ation
dem o
the y</w>
ov al
ro d
ot áz
m y
mus í</w>
h u</w>
P o
par ti
sy st
t ý
coun tri
po u
th ere</w>
m ů
l an
C oun
s pod
ce .</w>
sku teč
m .</w>
t i</w>
tře b
ř ení</w>
t n
ř en
o ther</w>
l ,</w>
Coun ci
on s</w>
hla s
w i
š t
l y,</w>
spod ář
kla d
tran s
in i
i li
st up
pe č
le a
a u
s er
t u</w>
at ,</w>
v lá
š ení</w>
ov er
pe op
j u
jed no
sta v
b a
pro to
stra te
en ce</w>
P ro
ho spodář
Komis e</w>
ro n
Uni on</w>
g h</w>
to ho
se ,</w>
m on
s led
import ant</w>
in te
u .</w>
vel mi</w>
jm é
r it
bez peč
ů m</w>
vš ak</w>
z áv
ab out</w>
Sta tes</w>
we l
em ent</w>
ment s</w>
st itu
m at
nation al</w>
o h
t y
ad y</w>
m á
st ran
é mu</w>
ch od
b li
g y</w>
v od
s om
Parlia ment</w>
ca use</w>
ar i
ne w</w>
re port</w>
d .</w>
ce l
re d</w>
w ho</w>
ti es</w>
k ro
o ,</w>
econ omi
b or
C h
le m</w>
vo l
k á
č an
ou s</w>
k ri
st ví</w>
ag a
c í</w>
ž í
vel op
e l
s m
e s,</w>
n it
e s.</w>
pod por
n ého</w>
by lo</w>
st o
j ist
ve n</w>
pra cov
cti ve</w>
zem ě
en ti
si l
t í
regi on
ob čan
no w</w>
wor k</w>
p ad
re ,</w>
po n
č en
wh at</w>
op er
wor k
Pan e</w>
on ly</w>
ra l</w>
h i
b o</w>
m no
od po
pů sob
d y
ně j
is su
j en
mez i</w>
J e</w>
f ac
ar d</w>
d r
re s</w>
be cause</w>
obla sti</w>
me ,</w>
ing .</w>
for e</w>
mar ke
ne bo</w>
v en
v r
d al
g ro
pro gra
si on</w>
v al
com e</w>
men ta
ta k</w>
roz hod
ov an
op at
ation s</w>
j ich</w>
gu la
ž e
wi th
we ver
ve s</w>
za mě
r y
ti ve</w>
an ce</w>
ní ,</w>
o se</w>
f fi
č as
sur e</w>
d op
li v
v in
k omis
wever ,</w>
st ab
de velop
s mě
le p
c re
se l
e m</w>
sup port</w>
á ní</w>
o st
pro te
i .</w>
e ve</w>
economi c</w>
d er
ab y
pro je
su b
j in
to ,</w>
pu bli
proto že</w>
re st
n i</w>
fi r
ci ,</w>
k ů</w>
z ení</w>
c is
s ch
je jich</w>
de d</w>
20 1
s lu
uni e</w>
je n</w>
pro ti</w>
u jí</w>
š en
we en</w>
m á</w>
m s</w>
ov o
o ch
bet ween</w>
on ,</w>
vo t
pro pos
peop le</w>
Counci l</w>
do hod
su ch</w>
m p
gh t</w>
a st
Eu rop
qu e
sk up
an i
the re
ch .</w>
Europ e</w>
l ob
ra z
t in
ro u
d í
by la</w>
ni ct
re g
z působ
spo lu
in to</w>
re gula
in stitu
l í
T o</w>
l in
r ů
ci ti
po č
res pon
ex ist
er ,</w>
z mě
in ve
ye ar
in á
aga in
i d</w>
H o
i f</w>
a .</w>
vy t
countri es</w>
roz vo
s á
ž ád
toho to</w>
sp ě
le d</w>
n u</w>
m an</w>
stan ov
in form
po in
strate gi
c an
I n
tion .</w>
s í
c ra
w n</w>
R ad
k y,</w>
al o
by chom</w>
tak e</w>
mak e</w>
be li
tion ,</w>
k t
lo gi
prob lé
e le
zá klad
citi zen
bud ou</w>
on .</w>
l ov
z i
ni t</w>
š í
n ým</w>
a f
k ov
N e
skup in
bi li
c en
it ,</w>
v ing</w>
re at
re la
ře j
th ose</w>
št ě</w>
R e
pod po
j eme</w>
ch áz
rá m
sk y
is la
kte ří</w>
te ch
ct s</w>
ar ly</w>
d ne
po kud</w>
ac i</w>
te x
ap pro
il a</w>
člen ských</w>
si g
finan cial</w>
och ran
n ad
mus íme</w>
er i
ž ad
př i</w>
ro u</w>
th in
con cer
u l
wh en</w>
leg isla
L is
ck ých</w>
ne ž</w>
l on
s in
ti me</w>
ní .</w>
c ris
k dy
de m</w>
ně .</w>
pan í</w>
over n
ji ž</w>
par lament
le s
inc lu
n e</w>
a ce</w>
po si
je ,</w>
me a
pos si
ch to</w>
vá m</w>
po mo
ten to</w>
an y</w>
se s</w>
ce d</w>
p li
ž ení</w>
som e</w>
d ru
di re
r en
sv é</w>
v y</w>
k om
man y</w>
re as
b er
tě chto</w>
Evropsk á</w>
ve řej
g lob
f ra
mi li
ran i
mo st</w>
ent s</w>
po sky
em ,</w>
ro b
res pe
č á
an s</w>
jmé na</w>
again st</w>
f re
be ing</w>
pod ni
Th e
za h
p í
d u</w>
g en
a ř
v ů
při j
pro ces
vy u
poli cy</w>
ef fe
pro vi
c ri
st ro
beli eve</w>
politi cal</w>
su l
m ad
qu i
Sta te
o f
pr v
st u
s em
mů že</w>
fu l
j as
c ation</w>
al a</w>
p o</w>
by l</w>
stá ty</w>
righ ts</w>
or d
s en
A f
sk á</w>
š tě
so cial</w>
sá h
m ov
á m</w>
ce p
j de</w>
ac í</w>
ag e</w>
demo kra
s vět
n ení</w>
th an</w>
que sti
i l</w>
w ar
aby chom</w>
ve d</w>
ko li
ra p
h y</w>
ze jména</w>
w ere</w>
sou čas
mea su
em p
sk ého</w>
ví ce</w>
a re
tom to</w>
r y</w>
there fore</w>
a ch
vi e
v nit
kon k
vel k
Ho wever,</w>
b ě
nu t
coun tr
( P
y ní</w>
le ,</w>
ob chod
o l
ment ,</w>
pří pad
vše ch
or y</w>
ces s
p ac
te e</w>
ge t</w>
ch tě
thin k</w>
d om
ad op
vý zna
s ad
st at
ing ,</w>
my sl
menta l</w>
p á
le .</w>
com m
é .</w>
wa y</w>
e t
S po
evropsk é</w>
ú čin
lo w
ř it</w>
iná rod
le s</w>
L )</w>
ne z
de b
mad e</w>
g re
smě r
by ly</w>
org á
parti cul
c lea
ho w</w>
an d,</w>
ty to</w>
ener gy</w>
re port
prob le
sh i
p is
st e</w>
po třeb
ed i
ř ad
d ra
il i</w>
za jist
c ent
pan e</w>
hu man</w>
spolu prá
tur e</w>
vi ron
bud ou
pr ů
at .</w>
l ar
im ple
ne ed
ou ,</w>
al s</w>
th ing</w>
ži vot
la ment</w>
a z
par tn
tu to</w>
b an
clea r</w>
at ing</w>
ně ž</w>
k ,</w>
is ,</w>
lo w</w>
ž d
or der</w>
a r</w>
zamě st
al i</w>
con tin
s práv
li m
š ím</w>
př es
n out</w>
země děl
mě li</w>
h led
k dy</w>
so lu
k y.</w>
co oper
un der
č i</w>
mí st
men d
in ci
hod no
publi c</w>
n an
ju st</w>
th rou
rám ci</w>
m od
c al
š ích</w>
a d</w>
cis i
ležit o
Par lament
pro to</w>
ob je
D E
ní mi</w>
en cy</w>
ti ck
h ar
je ho</w>
t oda
re sul
M ad
spe ci
pří kla
ta to</w>
odpo věd
něj ší</w>
com pe
e t</w>
0 0</w>
zd ra
kte rou</w>
fir st</w>
sa mo
en viron
o lu
ú rov
kdy ž</w>
z ře
g ent
z de</w>
z prav
vyt vo
ste j
komis ař
c ed
wh ere</w>
s s
it .</w>
i g
př ed</w>
he l
em .</w>
Pro to</w>
cur r
an k</w>
su m
směr ni
ná m</w>
ří zení</w>
T )</w>
mí t</w>
th er
m edi
en sure</w>
l .</w>
opat ření</w>
p ě
b od
po tře
práv a</w>
z í
la st
vá dě
g overn
R u
en c
se cur
ta in
co ž</w>
ž í</w>
vi d
contin u
d an
ach i
ma jí</w>
t y,</w>
tý ka
t w
sa me</w>
y s</w>
f fer
d a</w>
z ku
stá le</w>
v í,</w>
pos lan
demo cra
se ct
A s</w>
g ener
Mad am</w>
člen ské</w>
ur e</w>
finan ční</w>
ov ých</w>
re .</w>
re ady</w>
mez inárod
oh led
d v
ě ,</w>
progra m
y ing</w>
ně ní</w>
ch y
ment .</w>
ná z
te ,</w>
c our
č ních</w>
bili ty</w>
de cisi
im pro
e ven</w>
partn er
dů raz
W h
com mit
h al
c ted</w>
zá sad
jíc ích</w>
je ště</w>
ke m</w>
w ant</w>
l ing</w>
mu n
min ist
por te
sou vis
is e</w>
ord in
res olu
pí sem
mě la</w>
ř e</w>
c ar
righ t</w>
jed ná
n al</w>
measu res</w>
il li
respon si
can not</w>
n ing</w>
develop ment</w>
u mož
b al
do sáh
Th at</w>
k s</w>
roz poč
res s</w>
trans par
ř ád
třeb a</w>
o s
n yní</w>
ka žd
pr inci
he m</w>
ation ,</w>
go od</w>
is h
ž eme</w>
k ou</w>
the m</w>
Evropsk ého</w>
fa v
vis i
sv ob
c ould</w>
se e</w>
jedno t
zna č
sa y</w>
ci .</w>
n é,</w>
ed .</w>
e l</w>
M us
om e
p at
st ri
so lid
c or
ta in</w>
w rit
se t</w>
Pan í</w>
no w
( E
zprav oda
te ly</w>
j em
stab ili
k ing</w>
vo ted</w>
sk ou</w>
ed ,</w>
po žad
por u
zna men
lo sti</w>
lo y
pod mí
la t
ha p
inter national</w>
z ab
au th
rap porte
do es</w>
p lá
dů vod
nost ,</w>
z vlá
ation .</w>
stan d
st ar
sm lou
e c
re du
wel l</w>
situ ation</w>
ha d</w>
v last
ne cess
to ho</w>
is h</w>
inc rea
c lu
č í
před pis
d od
comm on</w>
v ní</w>
vše ch</w>
tiv ní</w>
th at,</w>
op e</w>
tech no
nu tí</w>
st áv
t al
všech ny</w>
písem ně.</w>
zře jm
d ou
le dem</w>
tw o</w>
marke t</w>
dis ku
A l
t or
e a
citizen s</w>
qu ali
with in</w>
al ready</w>
vyu ží
V ý
per i
dru h
ing s</w>
od vět
val u
bo th</w>
vz ta
í m,</w>
st up</w>
stru k
leg al</w>
vý rob
di ffer
G ro
vy š
zd ro
dne s</w>
m ber</w>
re ali
DE )</w>
ka z
budou c
it e</w>
ati ve</w>
( DE)</w>
T reat
k áz
2 0</w>
vět ší</w>
fac t</w>
b r
příkla d</w>
j o
le t</w>
ac ces
rov něž</w>
mu ch</w>
C on
st ill</w>
cti ve
dis cu
m al
z lep
cul tu
ň ov
c lo
la r</w>
č ast
před lo
kri z
pla t
speci fi
pro st
i d
návr h</w>
ví .</w>
pou ze</w>
svob od
th ou
B u
Th ere</w>
nost i,</w>
agre ement</w>
r s</w>
v at</w>
us nes
propos al</w>
poz i
kon tro
ur č
finan c
v á</w>
pri or
před stav
poz or
ne do
N a
z důraz
un der</w>
throu gh</w>
zaměst nan
fi ci
he al
y our</w>
o m</w>
ener ge
v ím</w>
ná stro
prá v</w>
k á</w>
par t</w>
v é
oval a</w>
c k</w>
in for
tion al</w>
s na
en d</w>
ku ,</w>
Com mit
wh e
te m</w>
inte gra
če t
potře bu
sk ý</w>
tom u,</w>
ex am
co l
dop ra
EU .</w>
k lá
re m</w>
ser vi
ko li</w>
t s.</w>
ste m</w>
Po kud</w>
pod le</w>
u jící</w>
ov al</w>
naš e</w>
go ti
na vr
reg ar
re pres
tri bu
fu l</w>
nost í</w>
dal ší</w>
w om
ini ti
š it</w>
spo tře
to to</w>
ti c</w>
ov er</w>
práv ní</w>
men ,</w>
ener gi
z k
ne d</w>
bud eme</w>
ro ce</w>
inve st
writ ing.</w>
ro ku</w>
n ém</w>
ma j
te dy</w>
posky t
issu e</w>
m é
z vý
ve l</w>
e kon
te n</w>
va li
mi ,</w>
gent le
ro ve
politi ck
deb ate</w>
t ru
in du
hi gh
soci ální</w>
ne goti
hal f</w>
přes věd
fav our</w>
do sa
org ani
t y.</w>
con si
s '</w>
f on
cí lem</w>
vy j
pro mis
the n</w>
politi ky</w>
ekon omi
š e</w>
zem ě</w>
ti me
ve r</w>
c le
st í</w>
e v
il e</w>
r é
in di
a i
cooper ation</w>
p i
( F
t á
d áv
al ,</w>
an i</w>
sl ov
t re
ne m</w>
possi ble</w>
e ver
in ten
ně koli
compe ti
návr h
po stup
nov é</w>
je ž</w>
particul arly</w>
m ě</w>
cris is</w>
Commit tee</w>
wh y</w>
stát ů</w>
ch op
š in
i de
gentle men,</w>
syst é
solid ar
k .</w>
ré t
di es</w>
tí m,</w>
h ere</w>
re qui
h lá
chan is
vie w</w>
nov é,</w>
stab li
pu t</w>
vo te</w>
Presid ent</w>
spotře bi
la s
poin t</w>
ce st
před e
d lou
c ů</w>
nez by
ser i
EU R</w>
b ers</w>
nost i.</w>
pro po
e stabli
is .</w>
sa fe
T a
u dr
případ ě</w>
countr y</w>
m em
M rs</w>
b en
sta te
moh ou</w>
skupin y</w>
a v
t s,</w>
st ,</w>
po tra
zřejm ě</w>
g es</w>
em is
pá nové,</w>
rove ň</w>
ved en
kon e
up lat
opat řen
rů z
me chanis
h ra
ro le</w>
tom ,</w>
vá ní</w>
ov a
n al
t ím</w>
dů sled
s ní
u r</w>
s ing</w>
k do</w>
with out</w>
ab on
vš ím</w>
om o
mů žeme</w>
di alo
ná s</w>
Lis b
discu s
t vr
á ,</w>
prote ction</w>
i ch
con tribu
gu ar
P od
z ne
tak en</w>
pro vádě
ou ra
ou p
pro mo
h ope</w>
ř i</w>
o sob
sub je
in vol
techno logi
st s</w>
g a
ř i
1 9
stand ar
konk rét
be z</w>
f le
va ž
nu mber</w>
pos í
lim ate</w>
la st</w>
s le
questi on</w>
ma in
som e
sch op
con di
evropsk ých</w>
za ce</w>
skuteč ně</w>
ch il
pos led
chan ge</w>
li ,</w>
zem í</w>
na příklad</w>
ent ly</w>
EU ,</w>
o wn</w>
fu ture</w>
pla ce</w>
lid ských</w>
x i
k rá
si ve</w>
náz or
R om
z ná
ě .</w>
má me</w>
v an
th ank</w>
fi c
ž it</w>
význa m
N a</w>
Par lament</w>
ou .</w>
pan a</w>
es s</w>
as pe
v a</w>
inte rest
ál ních</w>
si ons</w>
hospodář ské</w>
Evropsk ý</w>
an is
fo l
záv is
hel p</w>
te ch</w>
ac coun
ne bo
i gh
cultu ral</w>
k vali
ap pli
l u</w>
M in
poli c
d en
š k
k now</w>
Lis abon
c ,</w>
u ji</w>
j ů</w>
p an</w>
l ení</w>
parlament u</w>
á m,</w>
ko leg
a ted</w>
inve sti
Treat y</w>
předsed nict
ně ,</w>
Evrop a</w>
š e
ef for
důležit é</w>
agre em
les s</w>
le vel</w>
k de</w>
pod ě
jí ,</w>
bor u</w>
su c
gro w
li t</w>
we r</w>
ur ing</w>
podpor u</w>
a mend
lo o
u m
p le</w>
de pen
urč it
poz mě
ag ri
it y.</w>
ori ties</w>
be half</w>
vy so
ent .</w>
year s</w>
n at
c ích</w>
me ans</w>
h ovo
necess ary</w>
c limate</w>
shi p</w>
č ení</w>
inform ation</w>
sin ce</w>
ře šení</w>
h is</w>
ac tion</w>
secur ity</w>
ffi cul
ch ž</w>
re fer
re c
en ta
mě ly</w>
sk o</w>
př ist
di fficul
need s</w>
illi on</w>
me d</w>
for m</w>
stru ct
sy stem</w>
ne x
Mus íme</w>
f ur
- li</w>
z mí
are a</w>
Af ri
za ji
f li
com ple
dob r
tion s.</w>
kter ých</w>
pro ced
je jí</w>
curr ent</w>
k li
nebo ť</w>
u sed</w>
ma y</w>
la dies</w>
ou t
ku .</w>
přede vším</w>
de fin
ti cké</w>
fra me
člen sk
sta in
le vel
t ov
I f</w>
S ou
resolu tion</w>
l y.</w>
gi ve</w>
ú spě
st ron
th re
rozvo j
res our
naš ich</w>
ů m,</w>
Parlament u</w>
jmé nem</w>
col le
ge r</w>
la ,</w>
bet ter</w>
mun ity</w>
ma in</w>
souvis losti</w>
t ly</w>
un d</w>
pod ob
posi tion</w>
toho ,</w>
u ž</w>
poli ci
stran y</w>
zpráv a</w>
vyj ád
B ar
ini ci
agre e</w>
R )</w>
za po
ry ch
il o</w>
fre ed
k now
Ta to</w>
j ste</w>
es s
po pu
se ar
pl an
nict vím</w>
b as
mě l</w>
M a
inclu ding</w>
pří stup</w>
dá my</w>
ob y
ro stát
go ing</w>
ob sa
pro g
it y,</w>
vý sled
přesvěd čen
n or
p ly</w>
tra de</w>
te .</w>
am bi
pří stup
pou ží
com pan
or s</w>
tex t</w>
glob al</w>
s h</w>
ex pres
m to</w>
H las
V á
n ými</w>
per s
f ar
zá j
vnit rostát
č i
n ý
econ om
si mp
sil í</w>
ře k
ě j
dob ě</w>
po vin
op ini
guar an
s ation</w>
základ ě</w>
po kro
nex t</w>
con clu
g rea
da mental</w>
ful ly</w>
m lu
i es</w>
á le</w>
směrni ce</w>
př is
respe ct</w>
d ovo
gi ven</w>
mé ně</w>
in e
man ag
ú da
con tro
(F R)</w>
L i
Uni on.</w>
h a</w>
st ren
in stru
b ac
ce la</w>
n er
podmí n
ní mu</w>
ch al
stren g
J sem</w>
Evropsk ou</w>
pra cti
Commission er,</w>
h e</w>
R us
inici ati
u čin
ci ally</w>
tom u</w>
ň uje</w>
whe ther</w>
prostřed nictvím</w>
war ds</w>
P r
o te
mu ni
se .</w>
pozmě ňov
zd a</w>
rá d</w>
o re
č ně</w>
h y
e u
F or</w>
ži tel
fo re
ar u
man it
týka jící</w>
ed u
la b
vé st</w>
gre at</w>
tak ov
in e</w>
ta b
samo zřejmě</w>
ro k</w>
p it
mno ho</w>
t a</w>
při po
jedná ní</w>
wel come</w>
v u</w>
je .</w>
li ber
roz prav
fo re,</w>
at a</w>
de s</w>
pro hlá
emp loy
sa id</w>
provi de</w>
ch ar
Rus si
Spo leč
ch u
kli mat
(P L)</w>
bud get</w>
cu lar</w>
kra č
m ž</w>
ba sed</w>
continu e</w>
pří m
mili on
orgá n
tr h
tro du
sti ,</w>
es pe
h ledem</w>
c ally</w>
oval i</w>
o st</w>
ab ili
vá ž
ob nov
in trodu
e k</w>
m ob
navr h
chtě l</w>
on g</w>
za sed
at ten
a rea
appro a
In ter
org anis
ever y
tion s,</w>
č er
increa se</w>
žen ý</w>
zpravoda j
un ity</w>
á r
slu ž
je jí
pr is
al y</w>
al ly,</w>
m a</w>
c ing</w>
problé m
vý zku
Rad a</w>
reg ard</w>
ob ec
syst em
s an
ho wever,</w>
se t
cer tain</w>
differ ent</w>
Evrop ě</w>
po ten
bu sin
wa ys</w>
p as
A r
chy b
l s</w>
věd om
S e
ro ris
quali ty</w>
ná rod
ke y</w>
( S
ef fici
c tions</w>
zá ležito
chal len
F in
R ady</w>
exam ple
fol low
rapporte ur
ní vám</w>
zí sk
af ter</w>
si on
ště ní</w>
nezby t
mož né</w>
ess enti
op port
do kon
ad di
on e
to wards</w>
vý vo
k y
odvět ví</w>
návr hu</w>
vy z
acces s</w>
s ho
prav ed
S )</w>
cri min
su stain
t ary</w>
g ran
va tel
rozhod nutí</w>
la w
ob dob
tr hu</w>
s vě
te d.</w>
de ba
tech ni
h rani
espe cially</w>
th ir
če k
lon g</w>
proble ms</w>
J ak</w>
po važ
parti cular</w>
k o</w>
dr ž
a ž</w>
t ar
Spo jen
is ka</w>
d uring</w>
Lisb on</w>
sig ni
ca se</w>
fur ther</w>
J ed
f ish
konk ur
z cela</w>
ich ni</w>
wor l
o .</w>
vnit ř
nost .</w>
State s.</w>
ce s.</w>
usnes ení</w>
r ž
ku l
ter ms</w>
m ého</w>
imple menta
r u</w>
D i
A n
m ati
mi gra
a jí</w>
záv ě
toda y</w>
wom en</w>
udr žitel
ji ,</w>
f t</w>
uplat ň
be fore</w>
establi sh
úrov ni</w>
struk tur
k ů,</w>
Commission er</w>
č a
to ge
sk u</w>
práv ě</w>
pra c
n é.</w>
áv ání</w>
sv ou</w>
ig n</w>
ti me,</w>
mezinárod ní</w>
h ist
pří ležito
Wh at</w>
ag en
ú lo
minist ra
st .</w>
po krač
mě lo</w>
me .</w>
st ví,</w>
issu es</w>
gro up
R o
Ch tě
mak ing</w>
cház e
frame work</w>
Europe .</w>
tě ž
g o</w>
Uni ted</w>
prob lem</w>
thou gh</w>
z aci</w>
ye ar</w>
work ing</w>
jedno du
zpráv u</w>
na ší</w>
tý ká</w>
ležit ost
lep ší</w>
lin e</w>
v čet
fo od</w>
ru les</w>
po če
stej ně</w>
ne jen</w>
wor ld</w>
wh o
G re
on -
včet ně</w>
p ur
k tiv
zab ý
vět šin
ál ního</w>
sta teč
infor ma
o c
al o</w>
fun damental</w>
cour se,</w>
adop ted</w>
u je,</w>
popu la
demokra ci
n ému</w>
s s</w>
proces s</w>
ce s,</w>
sv ých</w>
zá kon
pe r</w>
( I
kri ze</w>
o sti</w>
heal th</w>
N i
T ak
grea ter</w>
y sl
ci vi
dohod y</w>
se con
z nov
me ly</w>
re form
l ze</w>
0 00</w>
v ari
bud ge
c all</w>
effe ctive</w>
č ního</w>
sou hlas
to o</w>
or ity</w>
hla v
u re
ag u
re sear
spotřebi tel
mu ,</w>
la d
ost at
me r</w>
situ ace</w>
j ení</w>
pracov ní
im pac
e ur
ex tre
zdra vot
M ar
S o
slu š
vi o
ve li
ved ení</w>
ad ministra
al l,</w>
mon it
vyt vá
T o
opport unity</w>
e very</w>
tu ,</w>
zpráv ě</w>
zah r
jednot liv
fe r</w>
j ob
sou drž
ben ef
se ver
ov á</w>
indu st
e z
n s</w>
d ent</w>
u jeme</w>
ne u
mi .</w>
D o
á me</w>
uni i</w>
fa ir
H ou
c .</w>
moh li</w>
er s,</w>
pracov ní</w>
vie w
v ě</w>
sup port
st ví.</w>
se qu
are as</w>
pomo ci</w>
har mon
con sum
D e
to m</w>
konkur en
ě h
na řízení</w>
ve ,</w>
z at
D om
ří zen
thre e</w>
je m</w>
ar ,</w>
co g
mob ili
u ral</w>
jíc í
dě la
O n</w>
strate gy</w>
bu il
specifi c</w>
S ch
fin d</w>
com b
při je
import ance</w>
vlá d
jed n
inc reas
f ám,</w>
č í</w>
transpar ent
pra vid
State s,</w>
d it</w>
) ,</w>
op en
ac cep
al .</w>
com ing</w>
re ally</w>
důležit é,</w>
ře šen
T en
achi e
ni c</w>
ochran u</w>
Společ en
nad ále</w>
re cog
visi on</w>
as k</w>
en ces</w>
a tel
zpráv y</w>
spoluprá ci</w>
š i
Commission .</w>
pří li
á ch</w>
potra vin
la w</w>
dosáh nout</w>
li st
tak ing</w>
w ard</w>
sti .</w>
ag ent
em i</w>
Z a</w>
vi du
fi ed</w>
fe w</w>
implementa tion</w>
vz děl
g in
ce i
fa r</w>
resul t</w>
con sid
pre v
ck ého</w>
ži vo
le ad
by li</w>
podě k
d re
J e
maj or</w>
za ch
záv az
finan čních</w>
re al</w>
Mem bers</w>
ote v
evropsk ého</w>
ab solu
ovan é</w>
ad d
nal é
T ur
ct ing</w>
společ né</w>
t rest
Ten to</w>
par lament</w>
součas né</w>
poče t</w>
er s.</w>
pan u</w>
200 9
nov ých</w>
indi vidu
wh ile</w>
Parlia ment
y 's</w>
be come</w>
me s</w>
j á</w>
prog ress</w>
environ mental</w>
sect or</w>
si de</w>
l and</w>
s lo
Com munity</w>
sou la
en ,</w>
ou s
p e</w>
di d</w>
m it</w>
n ,</w>
uni e.</w>
az y
zah rani
při prav
The se</w>
pří sluš
situ aci</w>
pe n</w>
si ,</w>
re st</w>
is ed</w>
tu .</w>
ac ti
de n</w>
seri ous</w>
) .</w>
d s,</w>
ž en</w>
regula tion</w>
sm all</w>
k lí
předsednict ví</w>
požad av
m illion</w>
b ro
mat ter
dire ctive</w>
jí .</w>
shi p
la te</w>
g ing</w>
č e</w>
z ni
ji m</w>
c ení</w>
vý z
ck ý</w>
b la
bu r
rozvo j</w>
in fra
Commission 's</w>
A t</w>
my s
ing le</w>
ob ě
in a</w>
as se
strategi e</w>
i tel
fre e</w>
af fe
s c
prů mysl
ka ,</w>
dod rž
achi eve</w>
The y</w>
essenti al</w>
propos als</w>
B al
bas is</w>
cí l
při jm
Uni on,</w>
ně které</w>
1 .</w>
politi cké</w>
ex pe
spoluprá ce</w>
sa z
com muni
condi tions</w>
záv a
legisla tion</w>
co ordin
approa ch</w>
s praved
h an
sect or
impac t</w>
er .</w>
ari an</w>
mon e
st oup
podpo rov
kul tur
mě r
předsed o,</w>
al low</w>
thir d</w>
report .</w>
š ť
enc oura
appro pri
fu tu
inter nal</w>
š í,</w>
jí t</w>
r e</w>
ci li
k é</w>
de c
vě ci</w>
cer tain
prav omo
u t
U kra
Gro up
h or
ju sti
mu l
cle arly</w>
a le
sp l
ac tu
Parlia ment,</w>
ri zi
le t
agri cultural</w>
mu .</w>
democra tic</w>
ě l
práv o</w>
f y</w>
in d</w>
effor ts</w>
jed in
em o
w an
decisi on</w>
princi ple
bě hem</w>
V y
d á</w>
stan ce</w>
Komis e.</w>
w ish</w>
ck ou</w>
z alo
mě sí
příli š</w>
ve lo
prá ce</w>
ne jsou</w>
(I T)</w>
sh or
ste ch</w>
pl ně</w>
odpo vě
ú če
l ém</w>
d one</w>
ti es.</w>
b our
za v
st and</w>
k ů.</w>
sk ým</w>
š tí</w>
Sta te</w>
vš ichni</w>
dialo gu
de velo
př á
fe l
do ku
dů vě
pro spě
as si
ú silí</w>
jo in
re ly</w>
soula du</w>
z ů
atten tion</w>
syst ém</w>
Vý boru</w>
ne po
ka m
roz ší
ú čast
syst ému</w>
po sto
an al
fi k
in f
id enti
návr hy</w>
na d</w>
sel f</w>
zvlá št
re cei
l í</w>
loo k</w>
in nov
fo cu
report ,</w>
potřebu jeme</w>
trans port</w>
pl y
ochran y</w>
er n</w>
klí č
orgá ny</w>
ou t,</w>
ě ní</w>
countri es.</w>
ček áv
al ways</w>
hled iska</w>
práv ních</w>
20 20</w>
e qu
R O
st ate</w>
200 9</w>
dom ní
g ed</w>
some thing</w>
hlas ování</w>
lid í</w>
n ab
auth orities</w>
vá s</w>
sou čá
con su
ter m</w>
ne k</w>
ů j</w>
několi k</w>
en d
Dom nívám</w>
ko ordin
a va
O b
Europe ,</w>
znov u</w>
consid er
ti es,</w>
c ro
te d,</w>
roz dí
S a
situ a
accoun t</w>
ta ble</w>
for ward</w>
od bor
vy h
u z
requi re
signi fic
s :</w>
proje k
u se
aga in</w>
ří ci,</w>
t ám</w>
freed om</w>
komisař i,</w>
ple a
mož nost</w>
F ran
hu .</w>
č it</w>
rů st
ov at,</w>
vá m,</w>
(P T)</w>
tra di
vů li</w>
ea ch</w>
vy žad
hi gh</w>
resour ces</w>
rec ent</w>
difficul t</w>
názor u</w>
s la
š ko
č lá
pod í
zá roveň</w>
t ou
d ří
institu tions</w>
The re
ck á</w>
pomo c</w>
ž dy</w>
ti t</w>
představ uje</w>
vari ous</w>
example ,</w>
P ře
přije tí</w>
společ en
consi der</w>
Di re
de f
J u
pac k
sou d
zased ání</w>
ně kterých</w>
jas ně</w>
exist uje</w>
hu manit
ov ou</w>
a id</w>
Presid ency</w>
su d</w>
Bar ro
ni ž
d ata</w>
z í</w>
mat ter</w>
ry bo
ohled ně</w>
ac t</w>
s ně
ra ti
ná sled
sch vá
u to</w>
toge ther</w>
gra tu
impro ve</w>
com es</w>
vytvo ření</w>
far m
li t
že l</w>
á d</w>
produ cts</w>
t on
A u
safe ty</w>
d ly,</w>
on ce</w>
de ,</w>
cház í</w>
ová ní.</w>
ha s
' .</w>
min u
propo sed</w>
pří prav
dem on
h uje</w>
cel é</w>
ví c</w>
ver s
prv ní</w>
an ti
te le</w>
f oun
op ak
mno ha</w>
tr h</w>
spo jen
colle agu
A m
G overn
ci on
M o
Uni on
veli ce</w>
servi ces</w>
kter ým</w>
0 .</w>
vy .</w>
prá ci</w>
pra vi
n y,</w>
is t</w>
ste p</w>
organi z
da y</w>
spe ak
ni l</w>
pers on
a ro
pe d</w>
al low
děl ení</w>
ous ly</w>
M ysl
fi cation</w>
opatřen í,</w>
ex peri
fle xi
otáz ky</w>
B y
abili ty</w>
milion ů</w>
po w
cre ate</w>
obdob í</w>
vů či</w>
pracov ních</w>
p ak</w>
a sk
ct ,</w>
na prost
ch c
region al</w>
de ci
ho l
J ak
ž á
ová ním</w>
vlast ní</w>
Evrop y</w>
zajist it</w>
solidar ity</w>
ov at.</w>
emp has
an other</w>
M E
vý m</w>
u m</w>
posi tive</w>
possi b
200 8</w>
l y
be st</w>
ová ní,</w>
ces chop
men tion
v hod
import an
rapporte ur</w>
responsi bility</w>
š len
ová na</w>
1 4
žen é</w>
sustain able</w>
Z a
prostřed í</w>
re ak
zk ou
v zá
Parliament 's</w>
Commission ,</w>
sně mov
polici es</w>
la ter
do wn</w>
stanov en
develop ing</w>
countri es,</w>
přis pě
rozpoč tu</w>
ta ck
ra te</w>
moh la</w>
kri min
B el
ů m.</w>
N ě
Z á
pres ent</w>
ne g
tu na
mon th
ava i
EU 's</w>
lar ge</w>
život ní</w>
t reat
secon d</w>
re li
život ního</w>
k ed</w>
ha ving</w>
li .</w>
vše m</w>
bezpeč nosti</w>
la ck</w>
cti ves</w>
zah á
chan ge
v zd
h en
stá t</w>
dal ších</w>
bezpeč nost</w>
Lisabon ské</w>
fi ght</w>
negoti ations</w>
ti c
sk ém</w>
am ong</w>
ven tion</w>
sv ůj</w>
glob ali
čast o</w>
ra v
bezpeč nost
konkuren ceschop
produ k
ov ý</w>
ful l</w>
fun ds</w>
particul ar,</w>
b í
an s
politi ka</w>
v ždy</w>
who le</w>
com promis
au tom
sta vi
š lo</w>
ne závis
n y.</w>
E x
C O
L e
stabili ty</w>
200 8
ov ého</w>
S lov
do poru
curr ently</w>
P e
uni e,</w>
proto ,</w>
le te
resear ch</w>
l é</w>
y oun
mí r
bac k</w>
de al</w>
č em
t ě</w>
f e</w>
polic y.</w>
m lad
0 %</w>
ohled u</w>
li g
b ar
princi ple</w>
občan ů</w>
br ing</w>
con sequ
za č
Group .</w>
rá nit</w>
důvod u</w>
o čekáv
ni la</w>
pri v
sel ves</w>
U S
" .</w>
n .</w>
ku ji</w>
hist ori
par lia
Č í
ffi ci
s ingle</w>
v y,</w>
základ ní</w>
stran ě</w>
subje ct</w>
hap pen
signific ant</w>
j ad
nab í
R ád</w>
skuteč nost,</w>
e ck
ap pe
jíc ím</w>
prob lém</w>
způsob em</w>
pa y
pra cu
ca u
b or</w>
žen y</w>
There fore,</w>
re que
rea ch
oval y</w>
en g
Gro up</w>
po ver
k ům</w>
hod ob
lon g
ex ten
sní žení</w>
nit ,</w>
ter n
lid é</w>
of ten</w>
tak ,</w>
sel f
B e
ni chž</w>
přist ěh
ri sti
en ter
1 0</w>
financ ování</w>
slu že
nut né</w>
ta ,</w>
co he
velk é</w>
ra ther</w>
ak tiv
stát y,</w>
por tu
tí ž
po sti
lea st</w>
heal th
acti vi
c méně</w>
t la
důsled ku</w>
ke e
th is,</w>
interest s</w>
po wer</w>
S tra
actu ally</w>
Min ist
ye t</w>
naš i</w>
sl ou
P or
jed náv
agent ur
Po li
for tuna
společ nosti</w>
in ov
S t
ší ho</w>
n on-
stron g</w>
dlou hodob
ne dáv
in depen
eur o</w>
ce lo
d ent
5 0</w>
z aru
bal í
cí le</w>
ti al</w>
pod stat
con gratu
P řed
th en
u zav
th is.</w>
jed ná</w>
re com
pů vod
ation s.</w>
parti ci
M y</w>
sk a</w>
fun g
do cu
a ir
legisla tive</w>
ac ích</w>
my šlen
od s</w>
žit í</w>
refer en
O r
e st
D al
dou b
Vá žený</w>
por ted</w>
člensk ými</w>
zlep šení</w>
th em
provádě ní</w>
du ,</w>
nes s</w>
problé my</w>
jad er
ho ,</w>
druh é</w>
d ence</w>
ve .</w>
gener al</w>
stáv ajíc
prostřed ky</w>
O S
Am eri
vyz ý
ová ny</w>
c ru
recog n
( RO
dis crimin
S m
mi mo
concer ns</w>
(RO )</w>
v it
for ce</w>
dosa žení</w>
To to</w>
T y
un g
(E S)</w>
an im
cal led</w>
u res</w>
jed nou</w>
Union 's</w>
L et</w>
po stav
oh ledem</w>
ti m
přijm out</w>
ř il</w>
work ers</w>
wh i
progra mu</w>
extre mely</w>
pozměňov ací</w>
C our
d it
V í
ne bude</w>
ho ž</w>
o w
mo ř
( N
grow th</w>
dre n</w>
ad van
pří pa
Pod le</w>
F ir
zvlá ště</w>
youn g</w>
ve k</w>
ac ro
mone y</w>
rybo lov
vý hod
m é</w>
C o</w>
ter nal</w>
concer ning</w>
usnes en
ú ko
zem ích</w>
tí mto</w>
al tern
V e</w>
prostřed ků</w>
follow ing</w>
p ing</w>
Uni e</w>
ál ně</w>
li gh
soci e
oby vatel
é ri
u kon
několi ka</w>
kon z
demon stra
u ved
zajist it,</w>
prac ovat</w>
m om
he r</w>
dis krimin
an é</w>
regi on</w>
prior ity</w>
u pozor
Komis i</w>
N em
e ch</w>
po lo
prohlá šení</w>
pro vo
Hou se</w>
d ne</w>
U n
jin é</w>
initi ati
za bezpeč
ta l</w>
t le</w>
růz ných</w>
úrov ni
ú řad
s ci
d on
o ther
ro us</w>
F un
pre zi
fa cili
ne t
bor der</w>
rá n
změ ny</w>
c la
so ,</w>
konkrét ní</w>
ál ním</w>
při jí
g ge
dokon ce</w>
cul ture</w>
201 0</w>
d s.</w>
Por tu
produ ction</w>
u na
chil dren</w>
G er
du e</w>
Chtě l</w>
200 7
va jí</w>
í m
D ou
význa m</w>
po k
busin es
zaji štění</w>
proces u</w>
lab our</w>
do stateč
e fe
time s</w>
qu ite</w>
ý ,</w>
mod er
f ak
sou sed
regar ding</w>
g y
šk od
pro č</w>
a w
p lo
vyš ší</w>
ti l</w>
j im
responsi ble</w>
me m</w>
klá dá
D emo
koli v</w>
te k</w>
posled ních</w>
oh ro
lo cal</w>
otáz ce</w>
zem í
zásad ní</w>
ris k</w>
chtě la</w>
země ,</w>
avai la
econom y</w>
k vůli</w>
op rav
S u
c tion.</w>
Ty to</w>
zamě řen
V i
simp ly</w>
po l
ation al</w>
fer ence</w>
u ne
e ho</w>
promo te</w>
cri ti
K ro
defin i
de leg
ta x
o logi
dob ře</w>
t ku</w>
Y ou</w>
před stavi
b u</w>
ment s.</w>
pravi de
repres enta
M ě
con fli
komis e</w>
základ ních</w>
rov n
ji chž</w>
jak é</w>
pro saz
sa i
ná klad
vytvo řit</w>
t ů</w>
posky tn
ko ,</w>
ter roris
do st
zá kla
poděk ovat</w>
jin ých</w>
tom uto</w>
hu žel</w>
d y,</w>
vo lu
politi ku</w>
nu clear</w>
ne ch
součas nosti</w>
č ním</w>
stá tech</w>
e li
odpo ví
a de
š í.</w>
š i</w>
th an
su per
st í
úspě š
ti ,</w>
know led
ation s,</w>
předsed a</w>
ná ro
vz hledem</w>
opini on</w>
so b</w>
in de
Parlia ment.</w>
otev řen
vý chod
ct .</w>
standar ds</w>
amend ments</w>
jed en</w>
a mi</w>
gro up</w>
otáz ka</w>
guaran tee</w>
pro fe
energi e</w>
záva ž
we e
V z
star t</w>
con stitu
mo ci</w>
us ing</w>
ta x</w>
ro st
da ,</w>
po žád
skuteč nosti</w>
im o</w>
initi ative</w>
t é</w>
sever al</w>
Counci l,</w>
en ted</w>
solu tion</w>
se x
naš eho</w>
evropsk ý</w>
le gi
c it
h rá
appropri ate</w>
zem í,</w>
v é</w>
rela tions</w>
J s
mov e</w>
B ul
energe tické</w>
zdra ví</w>
ovan ých</w>
ou cí</w>
h lí
re ad
streng then
p é
compan ies</w>
po d</w>
k an
re publi
la .</w>
po ko
E C
(N L)</w>
dne š
moh ly</w>
manag ement</w>
vz ni
c tion
2 .</w>
žen á</w>
- term</w>
vý ro
stanov is
ní ž</w>
i z
ni ch</w>
dí ky</w>
ai m</w>
žád né</w>
moh l</w>
guaran te
Komis e,</w>
li ght</w>
sou kro
indust ry</w>
Cour t</w>
redu ce</w>
sh all</w>
ná .</w>
pro ce
umož ní</w>
m í</w>
agreem ents</w>
Fin ally,</w>
bo j</w>
ac í
důležit ěj
tar ge
ob tíž
sle du
ment s,</w>
op ě
klimat u</w>
A L
po sed</w>
region ální</w>
přístup u</w>
ta stro
st ati
p il
ov i</w>
vá d
nalé ha
prior it
fel low</w>
ch u</w>
mno hem</w>
má m</w>
marke t.</w>
i c</w>
indu stri
sed .</w>
ru h
přesvědčen ,</w>
contro l</w>
H ung
S er
de .</w>
vo le
ome z
t s
chu dob
p is</w>
mimo řád
ar gu
m as
zvý šení</w>
dop ad
con stru
2 7</w>
po ku
mp loy
vi cti
le v
š ování</w>
sti c</w>
naprost o</w>
mul ti
dě lá
ka tastro
maj ority</w>
kom uni
cour se</w>
to o
commit ment</w>
sou r
ka pit
ex cel
de ter
certain ly</w>
s por
N or
vzta h
u veden
h roz
T ure
ká ch</w>
am oun
m imo</w>
re ag
liber ali
ře šit</w>
u káz
j ší</w>
ová ní
předpis y</w>
govern ment</w>
ve ly</w>
ne může</w>
employ ment</w>
podporov at</w>
en ou
záj mu</w>
200 7</w>
za vedení</w>
car ri
otáz ku</w>
program me</w>
stát ů,</w>
igh bour
ck ým</w>
19 9
c í,</w>
G u
par t
g y,</w>
vi ous</w>
me e
hla vní</w>
společ ně</w>
u děla
te l</w>
ta tion</w>
sex u
edu cation</w>
3 .</w>
pří s
h r
v al</w>
Ture ck
stanov ení</w>
zahr nu
ra t
com pli
in y</w>
po se</w>
ji .</w>
tel y,</w>
ne bezpeč
vzá jem
lid ská</w>
h er
ati v
před po
b rá
ka .</w>
energe tick
posled ní</w>
e i
rit éri
e ar
ac tions</w>
ov e</w>
mí t
th ings</w>
Af fair
re main
min d</w>
přij atel
le tech</w>
vě nov
consum ers</w>
th em.</w>
availa ble</w>
sur ing</w>
ta .</w>
regi ons</w>
l te</w>
t ent</w>
M ez
chc eme</w>
aby ch</w>
zá ležitost
ca ted</w>
I r
ď ar
lin es</w>
. .
vnitrostát ní</w>
ou t.</w>
sh od
prev ent</w>
mu m</w>
c s</w>
under stand</w>
pro visi
increas ing</w>
civi l</w>
rest ri
bal an
t ting</w>
pe v
asse ss
Kro mě</w>
tur n</w>
s ha
B ru
zahrani ční</w>
rá da</w>
po hy
nu ,</w>
vio len
k ritéri
dá le</w>
se e
plea sed</w>
součá stí</w>
clo se
ň ování</w>
ch ci</w>
veřej né</w>
Europe 's</w>
d ate</w>
K os
ž ila</w>
tvr d
stati sti
ck y</w>
b lo
v rá
podmín ky</w>
přij at
obje ctives</w>
Hlas oval</w>
join t</w>
individu al</w>
mož ná</w>
u ži
j it</w>
R igh
rů st</w>
tra in
a vo
zem i</w>
od stran
d ers</w>
pra k
prospě ch</w>
Ro z
exam ple</w>
o kam
ob rov
g y.</w>
j men
si on,</w>
min im
cíl ů</w>
prote ct</w>
je jichž</w>
democra cy</w>
Govern ment</w>
partner ství</w>
invol ved</w>
il ,</w>
řad ě</w>
vy svět
suc ces
pr ve</w>
fa ir</w>
exist ing</w>
o pen</w>
zvlášt ní</w>
rela tion</w>
kt ů</w>
rá me
om e</w>
ná kla
ste p
u s,</w>
občan é</w>
ra li
při způsob
Demo cra
stát ů.</w>
pa y</w>
rit eri
kone č
enter pris
re fu
polic y,</w>
no ,</w>
te mp
partici p
c tion,</w>
regar ds</w>
principle s</w>
pla y</w>
ó z
se en</w>
ren e
mno ž
reas on</w>
obchod ní</w>
provi ded</w>
resul ts</w>
portu ni
su ffici
sou hla
aw are</w>
Sm lou
fore ign</w>
ter rit
hap s</w>
inclu de</w>
fun ding</w>
jednotliv ých</w>
" ,</w>
dialogu e</w>
demokra tick
c riteri
sho w
ová ,</w>
stá te
cris is,</w>
n en
M on
w il
ste r</w>
b á
S w
že t</w>
Společen ství</w>
lo st</w>
sub stan
sub si
kom promis
Russi a</w>
l ent</w>
cohe sion</w>
inte rest</w>
en ess</w>
de ta
nezbyt né</w>
he ar
energe ti
it self</w>
nov ý</w>
ba si
righ ts.</w>
každ ý</w>
cov er
an y
posí lení</w>
šk er
za člen
o th
c ou
po st
op portuni
ná ,</w>
S econ
ome zen
hospodář ství</w>
e ko
sv ého</w>
anal y
ra di
3 0</w>
c are</w>
it er
ř ila</w>
p ati
o ffi
bla ho
zne poko
ct ly</w>
0 ,</w>
z ví
prv é</w>
míst o</w>
V ě
čin nosti</w>
en .</w>
suc cess
le ar
invest ment</w>
whi ch,</w>
spo ko
work .</w>
t vo
b lí
á .</w>
ni koli</w>
t ři</w>
ch a
D ě
i ly</w>
s it
střed ní</w>
y ou,</w>
le ct
ca pit
moh u</w>
systé m
m il
politi ckých</w>
S ku
benef it</w>
cris is.</w>
zdro jů</w>
h on
cor ding</w>
em er
P P
Min u
poin ts</w>
ar y,</w>
u kaz
na ,</w>
mi gran
re main</w>
růst u</w>
congratu late</w>
čem ž</w>
si on.</w>
i a</w>
throu gh
sta tes</w>
I re
t ory</w>
g in</w>
cre ation</w>
te st</w>
peri od</w>
pravid la</w>
jem e,</w>
b ře
tý če</w>
obje ctive</w>
righ ts,</w>
dou fám,</w>
kon fli
Stra te
odpověd nost</w>
la tion</w>
z ru
pro per
B o
te le
obchod u</w>
con ne
tic le</w>
znamen á,</w>
mu se
W ith</w>
W or
j azy
mem ber</w>
mat eri
d ly</w>
res ol
N yní</w>
dv ě</w>
ci es</w>
respon se</w>
chan ges</w>
vlá dy</w>
mention ed</w>
20 20
du .</w>
bo ji</w>
la men
z jednodu
so l
d ov
stáv á</w>
dra w</w>
ří m,</w>
strategi i</w>
In di
ab ly</w>
K dy
l ní</w>
futu re.</w>
řad u</w>
b a</w>
( C
migra tion</w>
lea d</w>
assi stance</w>
prob í
recom mend
k ové</w>
sk ými</w>
znamen á</w>
z lo
vá me</w>
challen ges</w>
inter ne
pa red</w>
mysl ím,</w>
po chop
ctive .</w>
bo j
u skuteč
z ovat</w>
sai d,</w>
při mě
C o
svě tě
skupin a</w>
pozor nost</w>
i m</w>
re fle
nost í,</w>
citizen s.</w>
Z práva</w>
ř ili</w>
rozhod nut
předpis ů</w>
vnitř ní</w>
zá jm
do ing</w>
doku ment
pla n</w>
ob lig
ve šker
pod rob
áv á</w>
en suring</w>
ví je
need ed</w>
job s</w>
ú va
do sud</w>
z vyš
něj ších</w>
S o</w>
consu mer</w>
increa sed</w>
focu s</w>
ci r
Bu t</w>
vi z</w>
system s</w>
domní vám,</w>
T i
posky tu
or ing</w>
proble mati
decisi ons</w>
mee ting</w>
vý raz
V )</w>
sv ém</w>
Vz hledem</w>
po chyb
in -
de sp
mu set</w>
de ch</w>
poten tial</w>
% .</w>
st o</w>
mal é</w>
(E L)</w>
t ní</w>
cro ss
excel lent</w>
z u</w>
O ne</w>
me n</w>
dv a</w>
žen o</w>
develo p</w>
veřej ných</w>
občan y</w>
concer n</w>
co sts</w>
jed ním</w>
hospodář skou</w>
de p
O ur</w>
le h
h ou
dis pozi
mu s</w>
an u
moh lo</w>
ctive ,</w>
acro ss</w>
eu roz
na .</w>
je hož</w>
podpo řit</w>
Counci l.</w>
při čemž</w>
pan ěl
pro ces</w>
mo re,</w>
se s,</w>
podpor y</w>
socie ty</w>
con tra
Rom ani
o znač
ná š</w>
fin al</w>
z ích</w>
podni ky</w>
ex ternal</w>
ab ove</w>
em ents</w>
pří spě
ne s</w>
g as</w>
úlo hu</w>
připrav en
of f
hodno cení</w>
h and,</w>
li fe</w>
vo ting</w>
group s</w>
do šlo</w>
krá t
ac c
me th
rene w
ž dě
st ly,</w>
ex pen
jed né</w>
informa ce</w>
con text</w>
pack age</w>
em i
or u</w>
fac t,</w>
v in</w>
transpar ency</w>
s vým</w>
qui ck
a tely</w>
G e
fe el</w>
EU -
t rá
lé pe</w>
dří ve</w>
bezpečnost ní</w>
mí n
competi tiv
is ing</w>
O ffi
ře ,</w>
poten ci
( H
de al
Pr o</w>
dohod a</w>
u dá
su gge
reas on
mi ght</w>
auth or
nu .</w>
enc y,</w>
advan ta
kro k</w>
s how</w>
od e
or ro
compromis e</w>
Minu tes</w>
A p
5 .</w>
' ,</w>
tře t
equ al</w>
im medi
zá stup
jed na
aro und</w>
vy vá
prá ve
len é</w>
lon ger</w>
o w</w>
cru cial</w>
exist ují</w>
č as</w>
smlou vy</w>
h á
De velop
streng then</w>
potra vin</w>
ry b
pe a
ně co</w>
mě ř</w>
g al
vý bor
sl y
c rea
ex clu
re form</w>
mak es</w>
b an</w>
de k</w>
later al</w>
l er
Ar ticle</w>
se em
d ri
of f</w>
V er
rela ting</w>
le n</w>
spe cial</w>
priv ate</w>
N A
level .</w>
ide a</w>
evropsk ou</w>
competi tion</w>
š pat
ati vní</w>
Af gh
k ind</w>
Th ank</w>
D ec
tru e</w>
záležito sti</w>
ved e</w>
ct s.</w>
Komis i,</w>
t or</w>
st r
ži l</w>
ac tive</w>
A sh
- si
proje cts</w>
ne ighbour
s ov
s or
deter min
agre ed</w>
vzděl ávání</w>
con fi
ob a
instru ments</w>
re for
f al
Gre e
rea ch</w>
fortuna tely,</w>
Or g
áv á
ná ní</w>
využí vání</w>
li fe
A gre
en able</w>
appli cation</w>
kone c</w>
rozpoč tov
pří ležitost
fa ce</w>
Dire ctive</w>
uplatň ování</w>
mem bers</w>
kon at</w>
Kos ov
contribu tion</w>
EU R
sp í
příležito st</w>
ro ad</w>
per spe
tra ffi
strategi c</w>
bo hužel</w>
con tain
z ad
re je
il legal</w>
me et</w>
bod y</w>
sk ému</w>
nat ural</w>
d at</w>
te roris
fa il
s cho
H e
množ ství</w>
integra tion</w>
carri ed</w>
fun k
e ly</w>
stu po
pre hen
M ed
add ress</w>
F und</w>
z y</w>
pl om
sh are</w>
ne zaměstnan
ká ž
je v
gen cy</w>
dop l
adop t</w>
em ber</w>
ele ct
expres s</w>
ade qu
žá do
progra m</w>
une mploy
souvis e
zeměděl ství</w>
se kt
zlo čin
ati s
ap ply</w>
n é
e ld</w>
o -
ne r</w>
di stri
budouc nosti</w>
tn é,</w>
roz pra
do stup
Evropsk ém</w>
ment ary</w>
cí ho</w>
od i
an nu
addi tional</w>
pre ven
ím co</w>
za čí
impro v
hled u</w>
U )</w>
ven kov
sy m
fer en
celo svět
dra ft</w>
amend ment</w>
prů bě
u jí,</w>
l -
h lu
poslan ci</w>
establi sh</w>
člá n
profe s
autom ob
re view</w>
T O</w>
tor s</w>
busin ess</w>
čin nost</w>
ú to
responsi bili
medi um
x im
nov á</w>
freed om
ce stu
jak é
me an</w>
h á</w>
consequ ences</w>
min ul
questi ons</w>
di plom
environ ment
emis sions</w>
simp li
basi c</w>
eri es</w>
sp i
tal king</w>
me ss
activi ties</w>
č ní
l od
bli ž
prostřed í,</w>
obla stech</w>
dop ad</w>
through out</w>
encoura ge</w>
achie ved</w>
U S</w>
P ri
zví ř
lit tle</w>
mu ž
legisla tiv
st ress</w>
consi st
poskytn out</w>
ct s,</w>
z ohled
dem an
program mes</w>
ni li</w>
dv ou</w>
zeměděl ské</w>
Re gula
Ř eck
tom orro
sk u,</w>
e ch
adop tion</w>
year s,</w>
ti sí
ň ovat</w>
imple ment</w>
to o,</w>
clo se</w>
c ům</w>
zá pis</w>
(H U)</w>
té měř</w>
poz ná
1 0
vý da
c a</w>
s niž
infra struct
dobr é</w>
I s
- ,</w>
liv ing</w>
add res
z er
jedn at</w>
b ran
v ra
th us</w>
s ?</w>
f ran
c y
da m
rovn ová
va ,</w>
ag es</w>
přimě řen
organi zace</w>
E n
C ent
ře čen
in ,</w>
ru p
di g
v ou</w>
vlá da</w>
spe ak</w>
Inter national</w>
distri bu
i ce</w>
Dou fám,</w>
kee p</w>
m or
toda y,</w>
s sel
vý mi</w>
sup ported</w>
s ť
e st</w>
ca ses</w>
Wh en</w>
tak ové</w>
kone čně</w>
da ň
K on
ár ní</w>
tou to</w>
s ;</w>
proje v
t an
inform ací</w>
člensk ým</w>
rozvo je</w>
a im
zku šen
st ed</w>
roz u
tr y</w>
m s.</w>
zdravot ní</w>
pří št
un til</w>
sen si
f il
dodrž ování</w>
imple men
velk ý</w>
measu re
ambi ti
absolu tely</w>
ší mi</w>
techni cal</w>
ele k
ca re
opportuni ties</w>
cir cu
dire ct</w>
worl d.</w>
com prehen
al though</w>
ví me,</w>
inde ed</w>
redu ction</w>
proced ure</w>
dě len
z bo
cho d</w>
z ed</w>
re gu
pre cis
m at</w>
vo jen
st in
T ra
cross -
ex plo
provisi ons</w>
Presid ent
tě mto</w>
ir e</w>
b in
concer ned</w>
ru le</w>
efe ktiv
cre ating</w>
po su
it u</w>
Secon dly,</w>
so on</w>
jedno znač
souhlas ím</w>
year s.</w>
environ ment</w>
vý boru</w>
nes mí</w>
time .</w>
pa ci
ová n</w>
marke ts</w>
vit al</w>
per haps</w>
ne ver</w>
financ ing</w>
1 5</w>
ni ka
contribu te</w>
ed er
c í.</w>
Al l</w>
ň ují</w>
c ta
b illion</w>
respe kt
reli gi
edu c
po plat
men tion</w>
ing ly</w>
( L
vole b
or u
gra p
c ů,</w>
me t
K a
C ha
nict ví</w>
c em
ai med</w>
žen ých</w>
p len
fi ka
d le</w>
ú ča
práv ,</w>
ome zení</w>
legi tim
f ri
za stav
St řed
R ov
mí me</w>
ž ní</w>
te m
st er
i led</w>
z účast
s atis
ně mž</w>
velk ou</w>
u vědom
ná sledu
y ch
sk o,</w>
mys l</w>
area .</w>
ne můžeme</w>
euroz ó
con sul
zá ru
pr im
re lev
parlament u,</w>
P a
u s.</w>
č ty
lan gu
lá ní</w>
ká m</w>
Tak é</w>
2009 .</w>
r a</w>
gy p
200 6</w>
ří me</w>
n ů</w>
bal ance</w>
ob ser
mili tary</w>
le 's</w>
H u
vý mě
fi eld</w>
e ver</w>
year ,</w>
slo žit
s dí
ráme c</w>
Bu d
pod ař
dě t
soci álního</w>
is ation</w>
ur čen
u stanovení</w>
subsi di
instru ment</w>
ov ým</w>
D E</w>
využí t</w>
o ko
p lu
kdy by</w>
seem s</w>
reg re
komis a
provi ding</w>
marke t,</w>
eko logi
Is ra
valu e</w>
re qu
pas sen
lar ge
peop le,</w>
be l
at temp
bod em</w>
he ld</w>
Re public</w>
work ,</w>
úda jů</w>
se s.</w>
nástro je</w>
mal ých</w>
soudrž nosti</w>
u po
ov é,</w>
kov ých</w>
hlas ovat</w>
obla st</w>
budou cí</w>
M al
al lo
(S V)</w>
c y.</w>
ment ing</w>
er u
Ch risti
popula tion</w>
j ů,</w>
pover ty</w>
sci enti
za čá
stu di
stan e</w>
pokrač ovat</w>
CO 2</w>
přistěh ova
podpor uje</w>
farm ers</w>
P ale
P ak
fi c</w>
vy kon
uz náv
no thing</w>
inf lu
eu ro
dě podob
c ations</w>
bo žen
cou z
valu es</w>
v nější</w>
tr a</w>
t ori
hu ge</w>
úče lem</w>
práv .</w>
cor re
změ ně</w>
za potřeb
Ge or
-si zed</w>
Evrop ě.</w>
pro por
fro n
N ení</w>
svět ě</w>
rod in
poč tu</w>
c at
ce m</w>
ře sť
require ments</w>
př in
oprav du</w>
c ím</w>
žen a</w>
govern ments</w>
aspe cts</w>
pě t</w>
sk on
e valu
d ro
potřeb a</w>
cen y</w>
Po tře
ž ili</w>
z ra
ce -
řek l,</w>
stan ding</w>
Ni cméně</w>
Evrop u</w>
zaji šť
z trá
there fore,</w>
u ží
m ist
a st</w>
Potře bu
Mez inárod
liv é</w>
áv at</w>
on d</w>
kri ti
Righ ts</w>
monit oring</w>
blaho přá
accep t</w>
tal k</w>
ch ví
ca p
violen ce</w>
l á</w>
de li
hlas oval</w>
promo ting</w>
parti es</w>
nedo stat
p y</w>
long -term</w>
pří tom
min i
medium -sized</w>
1 2</w>
countr y,</w>
kriz i</w>
určit é</w>
m s,</w>
ho ld</w>
impro ving</w>
Dal ším</w>
práv ního</w>
rá ní</w>
orgán ů</w>
Kdy ž</w>
over ,</w>
n y
vytvá ření</w>
nov ého</w>
annu al</w>
than ks</w>
d lu
re cent
opě t</w>
podni k
it ing</w>
ag e.</w>
sig ned</w>
schop ni</w>
prostřed í.</w>
po řád
tr val
kom ple
F ren
zpráv u,</w>
oval o</w>
ad ap
rela ted</w>
th at.</w>
pre vious</w>
peop le.</w>
ag e,</w>
vy nika
soci álních</w>
s ady</w>
cí l</w>
jo b</w>
ný .</w>
fon du</w>
O d
view ,</w>
rea d</w>
po tě
ka mi</w>
every one</w>
as soci
un is
ali s
acces sion</w>
země mi</w>
rapporteur ,</w>
effici ency</w>
T oda
usnesen í,</w>
ná božen
inte g
ně ji</w>
ci óz
Ukra jin
zdůraz nit,</w>
da le
ac ím</w>
wor ds</w>
sm r
prav děpodob
lo gy</w>
chil dr
dá t</w>
Rov něž</w>
soci et
služe b</w>
tr hu.</w>
c y,</w>
e vid
ne má</w>
an ,</w>
PP E
lo ,</w>
zem í.</w>
stron g
al s.</w>
vyjád řit</w>
enou gh</w>
year .</w>
přím o</w>
po má
ori gin
ani ž</w>
o li
F ur
zlep šit</w>
ve s.</w>
proje ct</w>
ho .</w>
sh rani
jak ým</w>
ge o
za jí
národ ní</w>
ac í,</w>
z on
třet ích</w>
se s
Ru mun
Jak o</w>
aby ste</w>
ře š
z uje</w>
stát ní</w>
possib le.</w>
emis í</w>
pri ces</w>
- in-
mod el</w>
J i
podě kov
ni kdy</w>
relev ant</w>
lo t</w>
ambi cióz
Dě kuji</w>
z odpověd
posí lit</w>
as y
ne vy
V el
s port
out side</w>
a však</w>
spraved l
obla ste
ele kt
cal ls</w>
h é</w>
ze ch</w>
vě dě
obyvatel st
oby va
dis ast
budge tary</w>
b ou</w>
requi red</w>
glob ální</w>
ask ed</w>
D ovo
nov ou</w>
si t</w>
pří rod
pr u
nej důležitěj
concer ne
Inter ne
jed nu</w>
effe cts</w>
fish ing</w>
effici ent</w>
představi tel
amoun t</w>
uni i.</w>
ne přijatel
men šin
sum mit</w>
př es</w>
facili ta
dom á
victi ms</w>
strengthen ing</w>
mysl u</w>
ine se</w>
vo len
reach ed</w>
pen í
d ů</w>
b ri
te )</w>
ná moř
every thing</w>
Pr áv
them selves</w>
mlu v
al most</w>
učin it</w>
rou ght</w>
al ong</w>
služ by</w>
společ ného</w>
čer v
ví z
jedno tn
týka jících</w>
Geor gi
za vést</w>
nákla dy</w>
OS N</w>
u je.</w>
Mysl ím,</w>
č .</w>
příležito sti</w>
plá n</w>
infra struktur
bě ž
ac tiv
humanit arian</w>
krá lov
E gyp
jící ho</w>
L u
Evrop y.</w>
l ých</w>
ex cep
vnitrostát ních</w>
report s</w>
ran e
month s</w>
b ru
Med iter
b ra
Mediter rane
una c
pře shrani
u re.</w>
de red</w>
2 5</w>
roz um
regula tions</w>
sa ying</w>
les s,</w>
opini on,</w>
mu nit
A C
požadav ky</w>
vyso k
foun d</w>
katastro f
civi li
Ch ina</w>
con du
ú roveň</w>
ca pac
avo id</w>
D á
spí še</w>
6 .</w>
spo lu</w>
o sob</w>
bud u</w>
Slov en
lu ,</w>
administra tive</w>
ho d</w>
N á
pat ří</w>
Sou hlas
Mě li</w>
c ate</w>
possi bility</w>
pl ý
do t
nost í.</w>
kro ky</w>
enc y.</w>
vů be
ne lze</w>
i tem</w>
té ž</w>
ex per
zá sady</w>
přist oup
po sou
referen du
redu cing</w>
práv a,</w>
ní ků</w>
matter s</w>
z i</w>
beli e
mě st
li š
Rad ě</w>
vi dě
te g
krá t</w>
zdro je</w>
y :</w>
wh ose</w>
obnov itel
.. .</w>
pra x
podpor uji</w>
obsa huje</w>
us nad
podař ilo</w>
mí sto
ambiti ous</w>
R ád
ochran ě</w>
th ,</w>
of fer</w>
pozi tivní</w>
ver the
ti ves</w>
přis pí
pur su
fa mi
comb at</w>
O f</w>
support ing</w>
st ing</w>
ne budou</w>
li ko
důležit ou</w>
discus sion</w>
acc ord
-in- Offi
sh ro
k ty</w>
je j</w>
f our</w>
ex a
cel kov
z by
podpor a</w>
na konec</w>
ther more,</w>
sum mit
Fren ch</w>
sto že</w>
úrovni .</w>
proced ures</w>
vš e</w>
liko ž</w>
le sk
comple tely</w>
cel ém</w>
automob il
P ři
provi des</w>
dem and</w>
vá l
Rom a</w>
de e
co st</w>
f lo
zat ímco</w>
vyžad uje</w>
politi ky.</w>
politi ky,</w>
do h
dneš ní</w>
řesť an
pre par
struk tu
a 's</w>
m illi
v at
knowled ge</w>
imple menting</w>
e re
Parlament u,</w>
ví tám</w>
fi ve</w>
s věd
použí vání</w>
po ra
vád í</w>
ctive ly</w>
ch á
balí č
w at
ne w
comb ating</w>
svobod y</w>
pri ce</w>
l ari
m lé
ck ing</w>
- 0
vá z
parlia mentary</w>
ně né</w>
bo je</w>
S r
sen su
C an
disku se</w>
á ni
zvý šit</w>
disku t
So ci
za u
sym bo
průbě hu</w>
lan d,</w>
ex er
d oda
sto p</w>
th .</w>
ast ern</w>
a vi
vzta hy</w>
ryb ář
pozná m
řek l</w>
ov liv
T ran
Potřebu jeme</w>
Lisabon ská</w>
většin a</w>
považ uji</w>
exa min
H a
žád ný</w>
discrimin ation</w>
c in
na řízen
te ro
zů st
stávajíc í</w>
no s
as su
roz manit
E S
že le
z ně
indust r
Ch ar
President -in-Offi
wa ste</w>
k r
toda y.</w>
chtě jí</w>
circu m
pen ě
mus ím</w>
Mysl ím</w>
stát y.</w>
smě rem</w>
pro ti
dialo g
me an
affe cted</w>
Li by
v il
rozpoč t
komple x
a pon
unac cep
ka z</w>
ř á
posto j</w>
or ,</w>
ca se,</w>
Ru le</w>
coordin ation</w>
čá st</w>
stát u</w>
podmí nek</w>
my slu
z ý
too k</w>
pres sure</w>
hlav ních</w>
ali st</w>
C zech</w>
vi ously</w>
té mat
roz počet</w>
solu tions</w>
di st
re cover
al s,</w>
okam žit
countr y.</w>
b rought</w>
lid í,</w>
komisař ko,</w>
cross- border</w>
ů žeme</w>
pro f
fun gu
a ir</w>
ve hi
ova tel
Ne j
I tal
pla tí</w>
h at
expe ct</w>
roz sa
konz ul
pri orities</w>
Hlas ovala</w>
sig ná
remain s</w>
nedo stateč
mi to</w>
institu tional</w>
f áz
d -
vě de
train ing</w>
now ,</w>
fung ování</w>
mili ard</w>
veřej ného</w>
podni ků</w>
občan ům</w>
D nes</w>
sna ží</w>
doporu čení</w>
I ra
tex t,</w>
s k</w>
potřeb u</w>
Pro gra
Develop ment</w>
směrni ci</w>
me ck
t -
pa st</w>
nor m
N o</w>
1 2
san k
nej větší</w>
ili ,</w>
fran couz
á me,</w>
vše obec
pres ented</w>
ný ,</w>
má ní</w>
Js me</w>
B raz
rozší ření</w>
U N</w>
ši ro
tak že</w>
sh e</w>
institu cion
pomo cí</w>
mimořád ně</w>
be h
záj my</w>
state k</w>
to ler
provo z
on e.</w>
il .</w>
ved .</w>
v li
C ro
ná silí</w>
wa y,</w>
vůbe c</w>
S ar
prá ci,</w>
gi ving</w>
colleagu es</w>
důležit ý</w>
kter ém</w>
demokraci e</w>
M ol
odpoví da
ne bylo</w>
be gin
Sw ed
ste ad</w>
se cu
compan i
Fur thermore,</w>
návrh ů</w>
míst ní</w>
o po
j ně</w>
initiati ves</w>
inclu ded</w>
če k</w>
s vo
re pe
ent s.</w>
1 ,</w>
u děl
subsidi ar
er s'</w>
enti re</w>
c ity</w>
he ad
k tivní</w>
dopra v
develo ped</w>
sup ply</w>
vzd ory</w>
sou tě
mí ry</w>
servi ce</w>
poděkov al</w>
sector .</w>
Rad y,</w>
5 %</w>
n alo
a ť</w>
E con
pro per</w>
dob u</w>
chu d
di men
deci ded</w>
t v
ší mu</w>
uděla t</w>
politi ce</w>
person al</w>
m ing</w>
vé d
li č
gen u
dis ea
addi tion,</w>
člá nek</w>
h ou</w>
dů chod
t ari
ele c
ans wer</w>
G ener
z o
od mít
í m.</w>
obchod ování</w>
klá dá</w>
f is
questi on
innov ation</w>
ar ing</w>
reque st</w>
čá sti</w>
závě r</w>
před cho
ent ing</w>
criteri a</w>
ú stav
know ,</w>
da y,</w>
I ris
y ed</w>
A )</w>
worl d
ru ral</w>
g g
( The</w>
issu e.</w>
dopra vy</w>
ta li
politick ou</w>
en gen
di ver
zá sa
u re,</w>
oura ble</w>
lu m</w>
sil ni
pres enta
K )</w>
prezi dent
he re.</w>
Fir stly,</w>
tel l</w>
l ou</w>
- 201
lu .</w>
na mely</w>
ati c</w>
Tur key</w>
získ at</w>
criti cis
ck ými</w>
b er,</w>
S E
soci ál
a č
ú pl
con fir
our selves</w>
mož nosti</w>
citizen s,</w>
ce n</w>
vy jednáv
commit ted</w>
(S K)</w>
nov ým</w>
ing s,</w>
d vo
D P
smlou va</w>
compe ten
prv ním</w>
od hod
effe cti
tak es</w>
politi k</w>
2009 ,</w>
con cre
té ma
od pad
ju di
a men
tex tu</w>
jak ý</w>
communi cation</w>
p resid
mo tion</w>
en 's</w>
requi res</w>
kon struk
u jících</w>
et ary</w>
ter s</w>
ro kra
mini mum</w>
j ů.</w>
h ov
tě mito</w>
ová no</w>
ne leg
Chtě la</w>
š em</w>
self -
mě ,</w>
ú mlu
treat ment</w>
pre pared</w>
ostat ní</w>
ná sil
sp er
jas né,</w>
důležit á</w>
po tvr
kriz e,</w>
PPE -
con vin
sle dek</w>
suffici ent</w>
př iná
U E
Po l
č ist
sho wn</w>
quick ly</w>
mezinárod ních</w>
con ta
assess ment</w>
Econ omi
ne ,</w>
rozvoj ové</w>
prv é,</w>
pod ně
li ve</w>
pla use
o práv
grap hi
% ,</w>
th reat
succes s</w>
rov é</w>
ac qu
A si
rych le</w>
pow ers</w>
o t</w>
effor t</w>
pl nění</w>
lu je</w>
č tvr
reas ons</w>
v .</w>
ý .</w>
re ž
přistěhova lect
pravomo ci</w>
plause )</w>
obla sti,</w>
missi on</w>
pe ace</w>
by rokra
A c
va še</w>
dispozi ci</w>
u d</w>
tu re
C í
m r
ro vá
partner ship</w>
establish ed</w>
Vá žená</w>
roz víje
repres ents</w>
Spojen ých</w>
lesk )</w>
la tions</w>
Rád a</w>
4 .</w>
rozvoj ových</w>
be y
Vý bor</w>
postav ení</w>
zá pad
T O
nej prve</w>
b y,</w>
( Ap
vo zi
de la
představ ují</w>
pla in
zapotřeb í</w>
rež im
lead ing</w>
he re,</w>
e qui
discus s</w>
G i
vy lou
Iris h</w>
ře ční
fish eries</w>
pokro ku</w>
by .</w>
effe ct</w>
Ví tám</w>
jak o
ist i
introdu ction</w>
govern ance</w>
comprehen sive</w>
inter ven
finan čního</w>
evropsk ým</w>
roz sáh
pr ch
emphas ise</w>
Bul g
3 ,</w>
indepen dent</w>
level ,</w>
competitiv eness</w>
Sa mo
zabý vat</w>
u sil
ovan á</w>
man u
uni í</w>
gro un
c ement</w>
at h</w>
týka jí</w>
nabí d
t op
respon d</w>
poč í
za cház
trans port
stu pe
li st</w>
vyso ké</w>
př eru
mess age</w>
konkrét ně</w>
ele ctions</w>
cest ov
Z e
spo ň</w>
ro li</w>
se par
law .</w>
dě kuji</w>
ne měli</w>
cre di
P ří
y ?</w>
ov ém</w>
M ore
go ods</w>
con dem
vynika jící</w>
e -
áv ají</w>
tr v
si l</w>
vyu žití</w>
přípa dech</w>
industri al</w>
finan ce</w>
experi ence</w>
By lo</w>
A le</w>
state ments</w>
G a
So cial</w>
syst em.</w>
růz né</w>
př en
Bel gi
výzku mu</w>
ther n</w>
rych le
potře by</w>
comm er
ca m
step s</w>
met od
mov ement</w>
circum stan
Ru sk
region u</w>
li ke
ist á
busines ses</w>
2 ,</w>
oth ers</w>
buil ding</w>
S ME
společ nou</w>
rozprav a</w>
Economi c</w>
commit te
Cent ral</w>
ca used</w>
wor ds,</w>
h u,</w>
ře .</w>
příspě v
mí ru</w>
establish ing</w>
am eri
ac cording</w>
u ji,</w>
se zna
expres sed</w>
výzku m</w>
desp ite</w>
E I
er ship</w>
level s</w>
auth ori
ak ,</w>
ea si
re vi
pozi tiv
ME P
v ých</w>
mu tu
Minist er</w>
vi l</w>
v stoup
u vol
rám cov
pro sper
h at</w>
recei ve</w>
pracovní ků</w>
organis ations</w>
Evrop ě,</w>
A d
stát ům</w>
oper ation</w>
concre te</w>
beh ind</w>
st ment</w>
loo king</w>
de si
Hu man</w>
vis a</w>
poslan ců</w>
hospodář ského</w>
fac ing</w>
cu t</w>
u zná
e th
de se
Mem ber
(C S)</w>
í t</w>
ob ran
M ám</w>
sector ,</w>
šen ím</w>
nástro j</w>
O n
4 0</w>
opatřen í.</w>
le ti
ale spoň</w>
1 8
sch ů
občan ské</w>
po stup</w>
ne byla</w>
Dovo lte</w>
vý ši</w>
vytvá ře
he ard</w>
stat us</w>
ú sil
obla st
ex ac
s r
oba vy</w>
dohod u</w>
Affair s</w>
(Ap plause)</w>
té ,</w>
služe b
samo t
ra tion</w>
mit ted</w>
achie ving</w>
e ing</w>
po blahopřá
Agre ement</w>
zemí ch,</w>
uni ver
recent ly</w>
upo n</w>
Pe op
n out,</w>
spo čí
ari ly</w>
Ně meck
nej více</w>
ří d
tr ying</w>
nes mír
enterpris es</w>
201 1</w>
cal ling</w>
nat ure</w>
cre dit</w>
stej né</w>
ex change</w>
ag rap
iniciati vy</w>
f f
bi o
jist ě</w>
form s</w>
vš emi</w>
la un
č ím</w>
scienti fic</w>
evropsk á</w>
pře káž
k il
high ligh
Fran ci
ovan ý</w>
ky ně</w>
change .</w>
budouc nu</w>
b it
ř uje</w>
benef its</w>
pa id</w>
mí st</w>
f ying</w>
commit tee</w>
úřad ující</w>
ru ,</w>
poskyt ování</w>
ú zemí</w>
tá li
u st
oko l
S y
v stup
Un fortunately,</w>
Ju sti
věnov at</w>
sen se</w>
car ry</w>
c ů.</w>
wa y.</w>
poin ted</w>
agen da</w>
žele zni
hra d
Ex ist
implemen ted</w>
pravide l</w>
Tran s
Spojen é</w>
I táli
ction ing</w>
Zá roveň</w>
jed na</w>
ří ká
Pro to
tick y</w>
pře zkou
poru šování</w>
is m</w>
A s
6 ,</w>
u prch
ent s,</w>
N G
I zra
problém y,</w>
plá nu</w>
ne me</w>
S te
za veden
w ron
sněmov ně</w>
manu fac
Hung arian</w>
zased á
m ne</w>
appli ed</w>
k ou,</w>
ak tu
změ nu</w>
renew able</w>
společen ství</w>
on i
obla sti.</w>
ho pe
econom y.</w>
1 00</w>
si x</w>
fami ly</w>
adequ ate</w>
ú vě
futu re,</w>
ajíc í</w>
en é</w>
f eder
úspě ch
u přím
ro m
territ ori
práv a.</w>
I )</w>
Evropsk ým</w>
A mend
si mi
ukon čen
rozhod ně</w>
rela tion
char ge</w>
Vi ce-
trh u,</w>
mem ber
kontro ly</w>
anti -
5 00</w>
(L T)</w>
te st
ris e</w>
proces s.</w>
ma xim
ká ní</w>
increas ingly</w>
high er</w>
g en</w>
P o</w>
vers ity</w>
le tí</w>
dohod ě</w>
Regula tion</w>
pří čin
sku .</w>
připo men
S in
č len</w>
ur ych
udá lo
situa ci,</w>
paci ent
kter ými</w>
ak e</w>
mechanis m</w>
lamen tem</w>
ch ce</w>
sit ting</w>
ni ly</w>
jen ž</w>
B ěl
vli v</w>
tex ti
obla stí</w>
More over,</w>
1 7
na víc</w>
ví m,</w>
harmon i
accord ance</w>
5 ,</w>
vzta hu</w>
main tain</w>
sm lu
recei ved</w>
pu st
po p
D ů
in tel
Sku teč
precis ely</w>
cel ou</w>
P er
čá st
roz por
dy na
K y
E ner
př it
mobili ty</w>
medi a</w>
dob ě,</w>
sp en
G ru
od .</w>
vývo j</w>
ur g
tel né</w>
pře zku
prog res
komisa ř</w>
n oun
le ft</w>
eng en</w>
nej vyšší</w>
ar y.</w>
M áme</w>
C A
Souhlas ím</w>
ser ve</w>
de ath</w>
do w
A však</w>
vzd á
vy k
ti ckých</w>
správ ně</w>
show s</w>
repres ent</w>
o ld</w>
Sch engen</w>
ve s,</w>
representa tives</w>
jin ými</w>
simi lar</w>
legisla tivní</w>
gra fi
parlament u.</w>
každ ém</w>
výsled ky</w>
společ ný</w>
anal ý
vě ,</w>
ther .</w>
od ,</w>
D o</w>
2008 .</w>
state ment</w>
ni lo</w>
eli min
bor der
ví t
vešker é</w>
ig n
au tor
Sou th</w>
z bran
competi tive</w>
success ful</w>
soci ali
humanit ární</w>
coun ter
li mi
wan ted</w>
uži teč
T unis
reas on,</w>
L ad
o cho
kro mě</w>
investi ce</w>
ř ování</w>
in .</w>
ni cméně</w>
va jící</w>
tab led</w>
přistěh oval
ch i
Evrop y,</w>
dec lar
F ron
profes sion
ch rá
bey ond</w>
sc ope</w>
k no
investi g
ch ed</w>
vý jim
lea ve</w>
k v
integra ted</w>
f f</w>
dire ctly</w>
deba te.</w>
Fin an
Mar ke
v ul
u si
h un
challen ge</w>
worl d,</w>
rov at</w>
e se</w>
dě tí</w>
rozvo ji</w>
hospodář ských</w>
co st
z veřej
j .</w>
za sa
vz dělá
no t,</w>
jak ou</w>
for war
com munity</w>
Lad ies</w>
ra ,</w>
gu ide
confli ct</w>
aim s</w>
č né</w>
emp lo
dra w
fa mili
B ri
sní žit</w>
předlo žila</w>
poskytu je</w>
h ard</w>
zpráv y,</w>
ra ised</w>
con cep
B er
m ý
hi m</w>
Ire land</w>
(P ot
ali ,</w>
reag ovat</w>
nit .</w>
capac ity</w>
systé my</w>
ss ing</w>
pen al
er v
způsob ,</w>
wa ter</w>
region .</w>
B rit
situ ation.</w>
ca me</w>
c lari
Jed ná</w>
ze k</w>
neg ative</w>
N áv
uni i,</w>
to tal</w>
par agrap
introdu ce</w>
hospodář ský</w>
ali ty</w>
agri culture</w>
strong ly</w>
poz dě
z jist
důležit ým</w>
jedno ho</w>
elek tro
agentur y</w>
potřebu je</w>
develop ment.</w>
vo d</w>
po dep
N ov
un e</w>
ing s.</w>
Běl oru
z hor
su f
p u</w>
wel l.</w>
monit o
li dem</w>
crea ted</w>
re d
is es</w>
Par ty</w>
za vádě
ěj ší</w>
vi ce</w>
te dly</w>
sk a,</w>
kontro lu</w>
allow ed</w>
ac í.</w>
H er
open ha
dostateč ně</w>
vnitř ního</w>
do spě
Dec ember</w>
C openha
ro vol
exer cis
e arly</w>
vy plý
řad a</w>
občan ů.</w>
s nad
or vat
at ta
vzni k
ju d
high ly</w>
ma ďar
h ad
ti tu
rozdí l
car b
k lim
asy lum</w>
sov ere
podpo ře</w>
ne mohou</w>
ev ents</w>
im migration</w>
US A</w>
stanovis ko</w>
re mind</w>
pro jednáv
i j
partn ers</w>
vz ít</w>
re infor
úda je</w>
demokra tické</w>
da .</w>
Wor ld</w>
F ra
pre ced
mezinárod ního</w>
balan ced</w>
k or
Cro ati
recogn ise</w>
passen g
dal ším</w>
shor t</w>
effe ctively</w>
zaru č
pří zni
President-in-Offi ce</w>
ži v
dě ti</w>
close ly</w>
umož ňuje</w>
ra z</w>
ou l
m y,</w>
ben e
H i
spotřebitel ů</w>
ar .</w>
an d
vyj ad
ov šem</w>
vá ,</w>
ta m</w>
dod á
Č len
problé mu</w>
konzul ta
g ri
buil d</w>
s ent</w>
návrh y,</w>
bi ologi
od liš
zlep š
po h
ní ci</w>
dom nívám</w>
Náv r
N ed
Ch in
2008 ,</w>
st y
qu o
pod vod
consi dered</w>
střed ních</w>
přes ně</w>
prá ce,</w>
grow ing</w>
I I</w>
mod el
cam pa
Bru ssel
člán ku</w>
vul ner
set ting</w>
a re,</w>
zaji ště
te h
Pale st
practi ce</w>
hu jí</w>
W est
th er,</w>
pro vision</w>
no r</w>
li ance</w>
fin ally</w>
svobod u</w>
re m.</w>
z is
ch ránit</w>
Counci l
ál u</w>
vý kon
problém ů</w>
ac cu
dra f
spo leh
bu t,</w>
V š
m er
cí ch,</w>
ac y</w>
využí vat</w>
o il</w>
d vě
ti ma
světě .</w>
ru le
pu l
poč á
comple te</w>
ali sation</w>
al th</w>
Ma ďar
něj ším</w>
in stead</w>
gi ves</w>
Mediterrane an</w>
J anu
postup u</w>
komuni ka
on e,</w>
ne mají</w>
li že</w>
je st
change ,</w>
Al though</w>
ag o,</w>
a si
á l</w>
to ti
pre ci
a way</w>
š et
recog ni
ra t</w>
cau se,</w>
Parlament u.</w>
Na še</w>
inter pre
for mu
prá ce.</w>
po vz
ou pen
ov ací</w>
ost í</w>
P an</w>
ý ch,</w>
re turn</w>
ekonomi cké</w>
tě ch,</w>
rov an
je likož</w>
te m,</w>
t ou</w>
jader né</w>
Ho w</w>
po chy
wi de</w>
(Pot lesk)</w>
každ é</w>
cur ity</w>
bo hat
Progra m
G lob
1 8</w>
ved la</w>
pře chod
crimin al</w>
te li</w>
k istá
oun d</w>
klimat u,</w>
elekt rá
Práv ě</w>
zem i,</w>
ti .</w>
dyna mi
ú prav
sou střed
rea u
j me</w>
i ght</w>
Gru zi
hod ně</w>
be gin</w>
Con vention</w>
zab rá
ochran a</w>
sed ,</w>
he ad</w>
Dá my</w>
sti mu
en for
dů ,</w>
bi lateral</w>
A ction</w>
způsob em,</w>
bu de
zabezpeč ení</w>
re ál
at lan
agreem ent.</w>
ta sk</w>
ne byly</w>
disku si</w>
budouc nost</w>
pře prav
produ ce</w>
hlav ním</w>
nej vět
discus sions</w>
at tack
work s</w>
tě ch</w>
main tain
ch emi
pol lu
inten ded</w>
inclu des</w>
Ser bi
Pod poru
vě řím,</w>
u al</w>
dvě ma</w>
té ma</w>
tvo ří</w>
pla ced</w>
konfli k
fun d</w>
skuteč né</w>
s rov
od sou
ni l,</w>
liv ě</w>
al a,</w>
ab u
ra dy</w>
li s
vztah ů</w>
M no
řečen o,</w>
tomorro w
hovo řit</w>
dosa ženo</w>
. )</w>
systém ů</w>
ř ady</w>
v liv
urg ent</w>
správ y</w>
kno wn</w>
postup y</w>
law ,</w>
klimat u.</w>
účin nosti</w>
přij ala</w>
practi cal</w>
kv ó
we ak
s dělení</w>
proje kt
no te</w>
requ ire</w>
reau cra
nej lepší</w>
nad ě
dan ge
c ers</w>
bý val
pokro k</w>
particip ation</w>
mar i
re m,</w>
podpo ř
plá n
gen e
end or
discu ssing</w>
struct ural</w>
li mit
tran si
ně kteří</w>
hrá t</w>
dob rovol
a war
ou ght</w>
ei ther</w>
con sensu
S ever
tý d
def en
6 0</w>
š ť</w>
bu reaucra
P ři</w>
Ch ci</w>
mili ar
důsled ky</w>
cháze jí</w>
vě cí</w>
vy pracov
sto jí</w>
an noun
ad ded</w>
ad d</w>
tý den</w>
sion s.</w>
potřeb né</w>
důvod ů</w>
doub t</w>
discus sed</w>
at ory</w>
Bulg ari
me -li</w>
convin ced</w>
zne či
při bliž
go es</w>
M er
vzděl ává
o zná
n ar
deci de</w>
2020 .</w>
uprch lí
cu st
An d</w>
l ing
C i
úva hu</w>
th em,</w>
obchod ních</w>
importan t.</w>
vš ak,</w>
pro pu
hlas ování
zamě řit</w>
hospodář ská</w>
bac k
ac ci
s is</w>
pur po
pou káz
so -
regula tory</w>
námoř ní</w>
mo c
da jí</w>
b ě</w>
z vá
sig n</w>
refu ge
reform s</w>
justi ce</w>
ho od</w>
rybolov u</w>
ma te
confi dence</w>
součas ně</w>
recover y</w>
dan é</w>
zach ování</w>
signi fi
ri st
přesvědčen a,</w>
posti žen
kan di
h and</w>
o sti,</w>
nesmír ně</w>
pravděpodob ně</w>
l ý</w>
Interne t</w>
sto j
soukro m
dialo g</w>
ch ov
Pri me</w>
úrovni ,</w>
otáz ky,</w>
oc cu
obje ctive
Ř e
zk é</w>
toda y's</w>
lete cké</w>
ci vil
řešen í,</w>
Í rá
mari time</w>
k od
zne uží
plat nost</w>
Š paněl
va z
it self
in ě</w>
en y</w>
dou f
země .</w>
s li
rozprav y</w>
over all</w>
z jev
in ed</w>
elect ri
Bul har
B os
ú řed
průmysl u</w>
challen ge
pro spe
les s
vytvo řen
toti ž</w>
B an
Afri can</w>
r ů</w>
cov er</w>
vehi c
Rad ou</w>
M u
prá ci.</w>
propo se</w>
kultur ní</w>
a tes</w>
ví te,</w>
rapporteur .</w>
nedáv no</w>
dom e
V še
Komis í</w>
naš im</w>
m ous</w>
Christi an</w>
tr p
slov a</w>
po lov
In de
kvali fik
deal ing</w>
d y.</w>
S vět
ál o</w>
suc ce
r un
samo stat
mí ře</w>
li ves</w>
j our
hel p
roz vin
návrh ,</w>
záležito st</w>
vy sí
signifi can
si ce</w>
Hlas ování</w>
ans w
so- called</w>
povin nost</w>
en ab
pro veden
h ů
du ty</w>
vyš et
san ds</w>
cház et</w>
prote cting</w>
per man
k ar
Af ter</w>
targe ts</w>
st ala</w>
sh ed</w>
ob zvláště</w>
mutu al</w>
Pře d</w>
(F I)</w>
tack le</w>
p ali
citizen s'</w>
Par tn
ra ise</w>
g ement</w>
Re gi
201 0.</w>
za káz
uzav řen
k ni
dv ou
do chází</w>
A b
shor t
roz en
kriz e.</w>
ž to</w>
začí t</w>
tře tí</w>
slou ží</w>
ist an</w>
establish ment</w>
F ore
ž íme</w>
re member</w>
fi el
c ted.</w>
společ nost</w>
nej dříve</w>
Ro zprav
dialog u</w>
carb on</w>
S pa
D P</w>
mlad ých</w>
mi d
h ru
commer cial</w>
it able</w>
Rad y.</w>
šen í,</w>
va .</w>
be coming</w>
přizpůsob ení</w>
mě ní</w>
Hi gh</w>
t :</w>
def ence</w>
boj ovat</w>
ur ge</w>
sect ors</w>
nezby tné,</w>
mea sure</w>
zahrnu je</w>
vy vin
e quality</w>
dů stoj
opráv ně
klim ati
j ,</w>
in spe
capit al</w>
ag o</w>
Sin ce</w>
Barro so,</w>
společ ných</w>
podni ka
on g
I ,</w>
pří ští</w>
po or</w>
pení ze</w>
ostat ních</w>
fe red</w>
Mezinárod ní</w>
Do hod
w ish
ni ckých</w>
anim al</w>
ú spor
teg ori
e -li</w>
š ir
zru šení</w>
omo ř
fi gh
vi a</w>
ry hod
la ted</w>
f ru
again ,</w>
N ow</w>
Ch orvat
su ,</w>
h ori
ce le
be cause,</w>
Portu gal
ví tá
syst em,</w>
lin ked</w>
Js ou</w>
něj ší,</w>
společ nosti,</w>
s cri
re ži
cel ý</w>
S pan
če m</w>
svět ové</w>
recommend ations</w>
nej ist
lan d
ex ces
vě .</w>
righ tly</w>
nalé z
k ou
es '</w>
Ru sko</w>
schvá len
exist ence</w>
dů .</w>
altern ative</w>
clo sed.</w>
m ně
con stan
c emi</w>
z mi
y -
op ad
bi g</w>
život a</w>
státe ch.</w>
přispě t</w>
Q u
Amend ment</w>
v ní
se bou</w>
docu ment</w>
L am
verthe less,</w>
u spoko
třeb a,</w>
ro vání</w>
do hod</w>
so .</w>
kontro l
dovo lte</w>
ck ém</w>
ti sh</w>
jednotn ého</w>
mez i
appro ved</w>
Li ber
sti ci
diskrimin a
da ňov
rá d,</w>
rozhodnut í,</w>
rov nosti</w>
do ta
Org ani
tra g
na jít</w>
mechanis ms</w>
lim it</w>
invol v
H la
nepo chyb
žád ná</w>
do po
al le
ad ver
absolu tori
NA TO</w>
Afri ca</w>
prů mysl</w>
area ,</w>
1 3
produ ct</w>
as h
komisař i</w>
O d</w>
účin né</w>
me et
dů klad
cel ého</w>
ací ho</w>
2 )</w>
důvě ryhod
zbo ží</w>
sta ted</w>
sou těž
och rán
en lar
D ruh
re ch</w>
její m</w>
institu ce</w>
Gener al</w>
ou sl
ob chod</w>
s ist</w>
kon ce</w>
em ent.</w>
Vice- President</w>
G o
lid i</w>
201 0,</w>
recogni tion</w>
/ E
pl ans</w>
ol s</w>
wel l-
to li
stav u</w>
zákla d</w>
sta č
limi ted</w>
společ nosti.</w>
Sr b
wan ts</w>
Gree ce</w>
ú st
sh ad
list opad
ask ing</w>
zpráv ě,</w>
zem ím</w>
re -
it a</w>
váž ně</w>
stanov í</w>
commit ments</w>
Sou čas
n aru
dome stic</w>
begin ning</w>
Europe ans</w>
znač né</w>
wh om</w>
pan em</w>
vyjád řil</w>
techno logy</w>
program ů</w>
o pozi
zí tra</w>
z rani
specifi cally</w>
in ova
M any</w>
Justi ce</w>
Inde ed,</w>
Evrop an
volu n
tru ly</w>
en a</w>
Fore ign</w>
řešen í.</w>
ved oucí</w>
př em
possib le,</w>
da ys</w>
b ab
K ore
výzku m
sup pli
conne ction</w>
ban k
S to
H e</w>
stáv ají</w>
nad cháze
develop ment,</w>
West ern</w>
zem ní</w>
t vá
m ly</w>
lo .</w>
z van
respe k
fon dů</w>
dob y</w>
mom ent</w>
Se curity</w>
ob ou</w>
en ce,</w>
Vy zý
Na víc</w>
otáz kou</w>
odpověd nosti</w>
manag ed</w>
fol low</w>
col la
bor ders</w>
J une</w>
t our
společ ností</w>
ty pe</w>
po může</w>
ne byl</w>
e as
Z ad
he ar</w>
area s.</w>
spojen ých</w>
religi ous</w>
oc ca
lid ské</w>
e k,</w>
F re
o ce
econom y,</w>
zá kaz
z ar
op position</w>
cent ral</w>
ar ran
Re presenta
sen d</w>
ent ry</w>
dě li
consu mp
ar ri
Cí lem</w>
zmí ně
odvět ví,</w>
jo in</w>
velk ým</w>
míst a</w>
cust om
for mer</w>
Th ir
Se a</w>
ří ci</w>
su ffer
pris on
terroris m</w>
hlu bo
dig it
4 ,</w>
pro p
jas né</w>
importan t,</w>
di ,</w>
d ou</w>
S ome</w>
Russi an</w>
přistoup ení</w>
mod i
jedna cího</w>
jak ý
do káz
bud ování</w>
E astern</w>
zřejm é,</w>
secur e</w>
en or
con cent
close r</w>
ovan ého</w>
open ing</w>
hodno ty</w>
b ly</w>
difficul ties</w>
D ále</w>
že te</w>
schvá li
regu l
pe stici
k em,</w>
for get</w>
fo rest
constru ction</w>
whe re
satis fac
ban kov
W i
resolu tion,</w>
přin es
deb at
ov ě
ní :</w>
fika ce</w>
Č er
criti cal</w>
Vš ichni</w>
ne zákon
Span ish</w>
ing ing</w>
čí mž</w>
rozší řen
o sti.</w>
co ,</w>
J in
regi me</w>
podmí ne
par ts</w>
j ní</w>
en jo
co her
po va
o fici
d ní</w>
dí l
dosáh li</w>
su .</w>
set t
na le
im i</w>
N ations</w>
správ né</w>
ing :</w>
ris ks</w>
k op
sniž ování</w>
obyva tel</w>
naléha vě</w>
fi gu
sion s,</w>
infrastruct ure</w>
ba v
refer ence</w>
pů j
požad a
mno ho
Tur k
ň ující</w>
wel com
pu tting</w>
nes míme</w>
mysl ím</w>
can di
Rozprav a</w>
J de</w>
u ti
přeshrani ční</w>
politick ý</w>
im migran
for ces</w>
státe ch,</w>
rám ce</w>
kládá ní</w>
bin ding</w>
Z áv
DE .</w>
thou sands</w>
deba te,</w>
provádě t</w>
le t.</w>
l ně</w>
f all</w>
unemploy ment</w>
it ě</w>
hori zon
an .</w>
O ct
z ce</w>
s jedno
potřebu jí</w>
kro kem</w>
k vět
issu es.</w>
em e,</w>
conclu sion</w>
Oct ob
č t
transpar ent</w>
sp ad
přibliž ně</w>
proble m.</w>
po sil
reali ty</w>
o l</w>
chil d</w>
Tur ke
B ank</w>
sa y,</w>
il s</w>
dodá vek</w>
T E
zá jem</w>
th y</w>
program me
naléz t</w>
jící mi</w>
institu tions.</w>
výro by</w>
vyzý vá</w>
view s</w>
tě ,</w>
tar get</w>
influ ence</w>
cí ch.</w>
společ nost
B ur
práve ch</w>
kter ého</w>
high light</w>
ap preci
ta sk
ně kdy</w>
no .</w>
ali z
B y</w>
výrob ků</w>
tru st</w>
te ď</w>
te le,</w>
cor rup
Zad ruh
EUR .</w>
projek t</w>
neu stále</w>
do st</w>
dis pu
re mar
inten zi
dí ž</w>
S um
1 5
Č e
ze len
ni cké</w>
gen der</w>
conclu sions</w>
af ri
progra my</w>
ar s</w>
í ho</w>
v ý</w>
sl an
sc ale</w>
předpo kla
poslan ce</w>
kon tak
hou se</w>
ř ad</w>
význam né</w>
immedi ate</w>
L at
Ger man</w>
zapo jení</w>
by ste</w>
an s,</w>
finan čním</w>
al l.</w>
w it
w in
vyso ce</w>
thre at</w>
sta ve
politick ého</w>
medi cin
lov ě
její ch</w>
Barro so</w>
y ;</w>
te s,</w>
sour ces</w>
mys li</w>
ent ly,</w>
shro má
set k
naš em</w>
h ání</w>
concerne d,</w>
redu ced</w>
poskyt ovat</w>
ni ,</w>
y ou.</w>
před mě
pru ž
pe ti
kon tin
ct ví</w>
fu el
Tra de</w>
8 0</w>
u prav
prosaz ování</w>
proper ly</w>
pro káz
nepochyb ně</w>
fun ctioning</w>
Ne vertheless,</w>
st al</w>
kaz uje</w>
A t
jednoznač ně</w>
ear li
Ma y</w>
M i
B a
legisla tion.</w>
bur den</w>
T ě
prac ování</w>
paragrap h</w>
agen cies</w>
ždě ní</w>
ří j
y s,</w>
posou zení</w>
jem e.</w>
dáv á</w>
achi ev
N es
/ AL
st res
promo tion</w>
politi ci
mo je</w>
e ch,</w>
H ar
záležitost í</w>
facilita te</w>
en han
ak tivní</w>
Ukra ine</w>
vyvá žen
societ y.</w>
kon feren
pozměňov acích</w>
institucion ální</w>
genu ine</w>
e cu
E P
Afri ca
politick á</w>
občan ů,</w>
issu e,</w>
hap py</w>
em ent,</w>
consider able</w>
State s'</w>
š paněl
agreem ent,</w>
O m
zab ránit</w>
stan ce,</w>
organis ed</w>
oblaste ch,</w>
ob viously</w>
Bri tish</w>
t ky</w>
energi e.</w>
b ách</w>
Smlou vy</w>
za ce,</w>
spraved liv
pře stože</w>
od rá
budge t.</w>
Ver ts
Pro te
výraz ně</w>
stanov it</w>
poru š
pl ying</w>
ov acích</w>
involv ement</w>
Verts /AL
é ho,</w>
inc or
e y
cent rá
ze m</w>
vyh nu
m álo</w>
začlen ění</w>
tý k
port s</w>
ní ky</w>
differ ences</w>
Char ter</w>
š el</w>
velk ých</w>
u jí.</w>
te s.</w>
sk il
účin nost</w>
ze p
situa ce,</w>
situ ation,</w>
ro ad
M an
výsled kem</w>
energi e,</w>
od mí
minim ální</w>
zdůraz nit</w>
support .</w>
some times</w>
prav da,</w>
k in
os věd
exac tly</w>
emplo ye
O t
1 4</w>
1 1</w>
společ ná</w>
impro ved</w>
ab le.</w>
wa r</w>
prob ably</w>
hu man
hlas ovali</w>
bar ri
sob ě</w>
ser v
vulner able</w>
pea ce
e red</w>
Z at
čen í,</w>
v ,</w>
tu díž</w>
pro vést</w>
introdu ced</w>
e co
Wh ile</w>
main ly</w>
ge tting</w>
fon d</w>
O L
ovan ou</w>
nej lep
addi tion</w>
zmí r
ko le
constru ctive</w>
ban ks</w>
C or
we ek</w>
vo j
á n
stoup ení</w>
produ cers</w>
pla te
něj ší.</w>
fa ced</w>
d ents</w>
an ých</w>
dra mati
Návr h</w>
tra vel</w>
sensi tive</w>
za znamen
ma xi
st rán
spotřebi tele</w>
rapporteur s</w>
par ty</w>
P ra
te m.</w>
re d.</w>
le ty</w>
st age</w>
Vě řím,</w>
20 %</w>
p un
lid í.</w>
bře z
Strate gy</w>
K o
A gency</w>
( B
st alo</w>
Ash ton
kon cep
zemí ch.</w>
transparent nost</w>
Sku p
čet ní</w>
ra ting</w>
projek ty</w>
Ka žd
zaměstnan osti</w>
ved ,</w>
su d
obtíž né</w>
ex tent</w>
č ními</w>
daň ových</w>
activ ity</w>
ví me</w>
konkurenceschop nost</w>
kandi dá
evropsk ými</w>
P í
í mi</w>
produ ced</w>
ele ments</w>
c las
králov ství</w>
flexi bility</w>
ekonomi ckých</w>
st ac
con tr
měr ně</w>
secur ity,</w>
oper at
zají ma
thou gh
guide lines</w>
foun d
shad ow</w>
ni kdo</w>
n out.</w>
I s</w>
unaccep table</w>
regre t</w>
pri ori
nor my</w>
ji me
h om
zá mě
ship s</w>
fri end
ry ing</w>
pře k
lé či
contro l
ordin ary</w>
Podporu ji</w>
zd r
u h
ů vod
na me</w>
komplex ní</w>
jako žto</w>
effecti ven
ca r</w>
zpráv u.</w>
začá tku</w>
vhod né</w>
uzav ření</w>
Peop le's</w>
Au dit
vyu žit
val i</w>
ex tra
Ch inese</w>
t ří
refor my</w>
odstran ění</w>
g al</w>
200 5</w>
gu ard</w>
F o
ř ím</w>
stupe m</w>
sto ck
odpově ď</w>
navrh uje</w>
mov ing</w>
ch ran
Vše ch
MEP s</w>
jak á</w>
chví li</w>
b il
Romani a</w>
pé če</w>
P á
8 .</w>
spe cu
g mati
0 0
vě c</w>
summit u</w>
sexu al</w>
i an</w>
ag ed</w>
poli ce</w>
li k
ad vo
san ctions</w>
re cor
hled is
contain s</w>
au ton
D es
č lově
záva zek</w>
t í,</w>
servi ces,</w>
problé m,</w>
Pí sem
tra gi
sub mitted</w>
na vzdory</w>
k en</w>
so li
odpově dě
hel ping</w>
cri me</w>
I tali
z ,</w>
mů j</w>
institu tions,</w>
dam age</w>
ac tion.</w>
Council 's</w>
PPE- DE</w>
náz or</w>
vý jime
vy řešit</w>
n ity</w>
equi p
bro ad
Fir st</w>
řád ně</w>
Člen ské</w>
ka pac
Mus í</w>
v o</w>
stand ard</w>
sha red</w>
přit om</w>
problé mem</w>
com pen
resol ve</w>
jedn om
svo ji</w>
se be
ob stac
jas ný</w>
W rit
ini an</w>
infor med</w>
hrani ce</w>
c oura
2007 ,</w>
živo t</w>
z nění</w>
ses sion</w>
parlament ní</w>
me rous</w>
en ing</w>
def end</w>
Ste jně</w>
če lí</w>
val a</w>
u jeme,</w>
případ ě,</w>
po hla
odbor né</w>
Writ ten</w>
K one
zapo mín
naš imi</w>
e l,</w>
an ce,</w>
Mus ím</w>
zpráv ě.</w>
změ na</w>
va )</w>
pla in</w>
F er
závaz ky</w>
využí vá
nedo statek</w>
do z
náklad ů</w>
ne měla</w>
use ful</w>
sch engen
podstat ě</w>
or a</w>
op ak</w>
každ ého</w>
pří j
advanta ge</w>
všech no</w>
rozpor u</w>
po ně
kvali ty</w>
g ar
for ced</w>
br inging</w>
Ti be
G 20</w>
w ise</w>
st ly</w>
příležitost í</w>
z e,</w>
con ven
st al
soud ní</w>
povin nosti</w>
7 .</w>
roz ši
koleg y</w>
guarante es</w>
energetick ou</w>
economi es</w>
Sar ko
S tru
A ,</w>
sear ch</w>
ro di
g res
disku tu
consider ation</w>
Vel mi</w>
vědom í</w>
to o.</w>
t áv
st ak
la bel
dob rou</w>
compli ance</w>
Toda y,</w>
Fra me
vý bor</w>
stupo vat</w>
strate gy.</w>
ohro ž
indepen dence</w>
appli c
ř a
sti cké</w>
k řesťan
gro und</w>
er ing</w>
to .</w>
pou žití</w>
le to
la ting</w>
ali sed</w>
smě ř
ní m,</w>
ni ce</w>
chan ce</w>
E F
work ed</w>
ukončen a.</w>
tě m,</w>
do ,</w>
za ved
pl né</w>
di cta
ali .</w>
vy vol
referendu m</w>
pur pose</w>
inc enti
there by</w>
se ek</w>
národ ních</w>
Se p
zdůraz ň
s vými</w>
de scri
b illi
jednodu še</w>
st ře
st vím</w>
předsed y</w>
ori gin</w>
dá l</w>
deba te)</w>
ship .</w>
tv or
aspe ct</w>
vy stav
v dě
se n</w>
schop nost</w>
ra tes</w>
naš ím</w>
Bal ká
20 0</w>
1 6
vzdá len
ro ky</w>
povin ností</w>
jednotliv é</w>
dis charge</w>
ban ky</w>
čá ste
stu dy</w>
star ting</w>
sm an</w>
prů myslu
polici es.</w>
nut no</w>
zach ovat</w>
ve m</w>
support s</w>
sk vě
demokra tů</w>
d vů
zvý š
přípa d</w>
law s</w>
kor up
druh é,</w>
dra wn</w>
Společen ství.</w>
spe ku
or s,</w>
dange rous</w>
attemp t</w>
a ver
Ž ád
spočí vá</w>
est im
re ci
význam nou</w>
relation ship</w>
im bab
en ce.</w>
du š
under min
region ,</w>
připo mín
improv ement</w>
continu ing</w>
consist ent</w>
Nor th</w>
zrani tel
tě .</w>
nu merous</w>
hon ourable</w>
d al</w>
con tent</w>
u bli
ra s
pře kon
postup ů</w>
lea se</w>
comple x</w>
b it</w>
ac ts</w>
ří dit</w>
význam ný</w>
obje v
ně ny</w>
ab le,</w>
w is
vlast ně</w>
skuteč nou</w>
servi ces.</w>
practi ces</w>
matter .</w>
ge ,</w>
tře tí
mno hé</w>
vý sledek</w>
u vádě
ra da</w>
podni ky,</w>
n -
en d,</w>
F or
territori al</w>
read ing</w>
om en
du b
bro ad</w>
vo li
prost or</w>
perman ent</w>
leg ally</w>
z ování</w>
st ří
bod ies</w>
Písem ná</w>
E ven</w>
tem por
cooper ation.</w>
ab oli
Janu ary</w>
rozpra va)</w>
předsed o</w>
komisař e</w>
dod áv
Samo zřejmě</w>
thin king</w>
předlo žit</w>
our s</w>
hlas ovala</w>
char ac
Marke t</w>
J á</w>
( rozprava)</w>
proble ms.</w>
pou žit
po vě
fortuna tely</w>
spolu pracov
pro de
p ap
ost ,</w>
li gent
com ply</w>
1 3</w>
( debate)</w>
z po
ur gent
t z
now .</w>
secur ity.</w>
on s.</w>
ná ležit
hospodář ství.</w>
high -
h ome</w>
com par
ch eck
area s,</w>
E G
otáz kách</w>
ed oni
Ener gy</w>
rozdí l</w>
le t,</w>
fa iled</w>
Nem ůžeme</w>
un able</w>
svěd ky</w>
s mo
re volu
deman ds</w>
zásad ě</w>
zjednodu šení</w>
světě ,</w>
or y.</w>
vol ení</w>
ob rá
ele ction</w>
demokraci i</w>
Lisabon skou</w>
Ash t
v la
ukaz uje,</w>
skuteč nosti,</w>
prak ti
po ško
mil k</w>
lead ers</w>
tab le.</w>
milli ons</w>
le ží</w>
konkrét ních</w>
Ger man
poli t
navr hu
measure s,</w>
maxi mum</w>
man date</w>
druh ou</w>
continu es</w>
W TO</w>
Om bud
váž né</w>
nástro jů</w>
l ého</w>
1 .
čen ých</w>
st ví
skup in</w>
pů sob</w>
na pl
wee ks</w>
lan d.</w>
hlas ování.</w>
určit ě</w>
ele cted</w>
Pro č</w>
pla tit</w>
osob y</w>
g ov
con text,</w>
Afgh an
sa fe</w>
obě tí</w>
ig no
grea test</w>
e vrop
politi ku,</w>
li vo
dne ch</w>
A gen
zvlá šť</w>
propos al,</w>
o ral</w>
de l</w>
adop ting</w>
Záv ě
úča st</w>
tra ding</w>
pl od
jin ak</w>
hovo říme</w>
buil d
úrov ně</w>
zůst at</w>
va ši</w>
dvou stran
Lisb on,</w>
6 -0
změ nit</w>
ye ster
po hledu</w>
compan y</w>
č ný</w>
super vis
pří jm
h one
fail ure</w>
ro nic</w>
přiná ší</w>
me rely</w>
c ent</w>
balí ček</w>
seri ously</w>
probí ha
ná mi</w>
cest u</w>
b rit
M id
úča sti</w>
rozdí ly</w>
ni mi</w>
C a
r ý
propos al.</w>
h lou
ex ecu
í me,</w>
za řízení</w>
vý bě
trans ak
ran ce</w>
pří jem
de ad
9 .</w>
svobod y,</w>
balíč ku</w>
souvise jící</w>
prob ěh
pohy bu</w>
okam ži
ně ných</w>
logi cal</w>
cur ren
Presid ency,</w>
wee k
u je
ori enta
d é
E st
part ner</w>
enor mous</w>
dost at</w>
cent rali
z ní</w>
stan ou</w>
rozpočt ové</w>
part ne
moder ni
cov ered</w>
A n</w>
vů d
sá m</w>
pop táv
1 6</w>
( Rule</w>
z působ</w>
ví ce
kon textu</w>
in come</w>
D a
vo te.</w>
umož nit</w>
evropsk ém</w>
concep t</w>
be ar</w>
coordin ated</w>
consensu s</w>
Democra ts</w>
2020 ,</w>
vlast ních</w>
určit ých</w>
spolu pracovat</w>
ri t</w>
questi on.</w>
měsí ců</w>
measure s.</w>
dan ě</w>
uplatň ovat</w>
sur ve
f la
bo d</w>
zů stává</w>
toli k</w>
t ří</w>
recogn ised</w>
otáz ku,</w>
hist ory</w>
ú myslu</w>
zahr nov
sled ování</w>
r á</w>
proces s,</w>
pers ons</w>
cap able</w>
In ve
poin t
pers on</w>
out come</w>
na vý
do hledu</w>
d ě</w>
Sch ul
u jist
spo třeb
s y</w>
zpravoda ji</w>
sa v
pa mě
monit or</w>
explo it
Ne w</w>
Copenha gen</w>
zpravoda j</w>
vytvá ří</w>
pře sto</w>
pře ji</w>
ně na</w>
figh ting</w>
áni stá
zvý šen
sig nal</w>
ru .</w>
ov ými</w>
ob vyk
cau ses</w>
čty ři</w>
zeměděl ských</w>
vš e,</w>
plá nov
organis ation</w>
koleg ové</w>
k ur
důležit é.</w>
E ast</w>
účin ně</w>
transparent nosti</w>
k ou.</w>
W al
rap id</w>
do m</w>
wron g</w>
te le.</w>
prezident a</w>
oul d,</w>
nu je</w>
Ho spodář
Afgh ánistá
vo la
v ním</w>
ob dr
mí sta
speak ing</w>
ri ch
refer red</w>
Mar ch</w>
rati fik
Treat y.</w>
Swed ish</w>
En viron
Bal tic</w>
AL DE</w>
zpráv y.</w>
vol ném</w>
vlád ní</w>
profession al</w>
develop ments</w>
závě r
tax pay
st oupen
o xi
eas y</w>
cal ,</w>
z en</w>
spi rit</w>
region y</w>
re vis
happen ed</w>
G ali
z tra
vě ci,</w>
under standing</w>
rozprav ě</w>
při rozen
kon stat
it al
enti al</w>
disku s
Pá kistá
ně m</w>
liberali sation</w>
br zy</w>
zajist í</w>
tla k</w>
en ed</w>
do jde</w>
Fun damental</w>
á ch,</w>
wor th</w>
wil l,</w>
správ ným</w>
projek tu</w>
gre en
de gre
čí n
oblig ations</w>
ně j</w>
eth nic</w>
ambicióz ní</w>
a wa
zaměstnan ost</w>
tr hy</w>
slov y</w>
enou gh
a ster</w>
W hy</w>
žád nou</w>
ča s,</w>
technologi es</w>
pres s</w>
po bře
ex i
Sa fe
M oh
Frame work</w>
spe ech</w>
pro since</w>
obnovitel ných</w>
lid ové</w>
kee ping</w>
jaké koli</w>
invest ments</w>
Z imbab
Wi th
Kosov o</w>
w on
vý še</w>
tak ových</w>
přísluš né</w>
podpor u.</w>
podep s
or y,</w>
odpovída jící</w>
K an
Itali an</w>
F e
po ji
obec ně</w>
14 9
sh r
produ cts.</w>
pe s</w>
lo wer</w>
u spo
langu age</w>
200 4</w>
zabý vá</w>
stab il
pří no
podob ě</w>
em ise</w>
dese ti
byrokra ci
allow ing</w>
prost ě</w>
mož né,</w>
Ru les</w>
19 8
ran ge</w>
on s,</w>
od ůvod
judi cial</w>
conclu de</w>
associ ated</w>
prote ction.</w>
fun d
fu el</w>
ex pan
dom in
Org anis
poz o
osob ní</w>
jmé ně</w>
at titu
K od
Bel aru
spoko jen
resolu tion.</w>
ne o
k ům,</w>
gra du
proto ko
proje ktů</w>
kritéri a</w>
jednodu ch
environ ment.</w>
en su
vyso kou</w>
se be</w>
pre vention</w>
pochop itel
l hů
il st</w>
. "</w>
jednot li
At lan
Ac cording</w>
vy dáv
ne existuje</w>
investi ční</w>
en í,</w>
ce t</w>
Partn ership</w>
většin ou</w>
pro ved
evalu ation</w>
analy sis</w>
S E</w>
tě z
inclu sion</w>
colle ctive</w>
Con stitu
th u
reak ci</w>
orgán y,</w>
enti rely</w>
Gi ven</w>
čin í</w>
strate gy,</w>
en ter</w>
dis aster</w>
altern ati
U N
Ot áz
G UE
součá st</w>
r ing
pil í
kon ci</w>
do ká
super vision</w>
pří klad
prezi dent</w>
ně me
com ments</w>
th o
rat ing
prost oru</w>
ener gy,</w>
Tureck o</w>
P ř
suffer ing</w>
předsednict ví,</w>
j te</w>
uz n
sna žit</w>
pla ce.</w>
n ation</w>
k ru
educ ation,</w>
appli es</w>
stra n</w>
cest ě</w>
za váz
všech na</w>
udržitel ného</w>
sí ly</w>
solidar ity.</w>
sk y</w>
te red</w>
mezinárod ním</w>
exten d</w>
dobr ý</w>
ú plně</w>
s děl
fish er
J o
zby teč
výrob ky</w>
vy pořád
v u,</w>
klá dat</w>
opě tov
e f</w>
offi cial</w>
koordin ace</w>
důležit ých</w>
appe al</w>
sour ce</w>
sly še
p are</w>
ob ě</w>
li es</w>
ex plan
( článek</w>
t ally</w>
ni .</w>
exist ovat</w>
affe ct</w>
Pe ti
vi dí
system ati
děla t</w>
ad a</w>
GUE /
GUE/ NG
un anim
takov ý</w>
sna d</w>
safe guar
sa mi</w>
pay ments</w>
Pro b
z ó
trans atlan
př .</w>
ová ni</w>
negoti ating</w>
sta v</w>
poin t,</w>
po volen
ev ent</w>
con solid
ban k</w>
th en,</w>
produ kt
M e
u jícím</w>
safe guard</w>
on al</w>
ne hod
listopad u</w>
Evropsk ému</w>
zd á</w>
technologi í</w>
per fe
peop le's</w>
otáz ek</w>
lo s
i ther</w>
easi er</w>
de ca
zacház ení</w>
large st</w>
koordin aci</w>
hap pen</w>
budge t,</w>
an g
T e
thu ani
tak é,</w>
respe ct,</w>
Li thuani
zahá jen
too l</w>
t ob
pay ment</w>
ne jméně</w>
gre en</w>
go al</w>
dop ady</w>
dire ction</w>
de fici
člen ský</w>
příšt ích</w>
kvali tní</w>
inve st</w>
dů raz</w>
Mon etary</w>
žen ,</w>
vo ice</w>
ju stment</w>
en o</w>
democra cy,</w>
Al liance</w>
přij ata</w>
propor tion
jíc í,</w>
industr y.</w>
hospodář ství,</w>
expres sion</w>
an s.</w>
SME s</w>
1 7</w>
zvíř at</w>
vstup u</w>
velk á</w>
lé ka
Bud ge
vy člen
ži ly</w>
usil ovat</w>
teroris mu</w>
st ů</w>
s lab
niž ší</w>
mechanis mus</w>
democra cy.</w>
By l</w>
upozor nit</w>
invol ving</w>
e c</w>
sa ma</w>
přek va
k re
evid ence</w>
Tak že</w>
2007 .</w>
zná m
zapo jen
seri es</w>
OS N
koli k</w>
centrá lní</w>
š véd
uzná ní</w>
s myslu</w>
rov nost</w>
issu es,</w>
Par lamentem</w>
zmí nil</w>
z nal
u stanoven
ob av
me t</w>
ge .</w>
dá r
dlou ho</w>
af fair
Member s,</w>
He alth</w>
za ce.</w>
them sel
resour ces.</w>
podnika tel
innov ative</w>
hovo ří</w>
en es
M exi
čer a</w>
ne .</w>
mi kro
inten d</w>
fis cal</w>
Pro ced
201 2</w>
člen ského</w>
za mít
stron ger</w>
žádo st</w>
wor d</w>
vy mez
or s.</w>
na př.</w>
n ou,</w>
en ced</w>
de ser
evrop ští</w>
com plain
allow s</w>
t rea
stanov iska</w>
reali z
per for
fo rem</w>
dopo sud</w>
c ování</w>
administra tivní</w>
G )</w>
D í
technologi e</w>
povz bu
po bí
in t</w>
důvě ru</w>
vol by</w>
uspo řád
ra .</w>
pres er
po nech
obrov ské</w>
deb t</w>
u su
trans fer</w>
stávajíc ích</w>
doda teč
L a
sp ent</w>
see king</w>
před nost
p ha
p al
other .</w>
addres sed</w>
Fran ce</w>
ří .</w>
í te</w>
za stup
st op
jednot ný</w>
P ou
A gri
ří k
původ u</w>
náz ory</w>
mis e</w>
emphas is</w>
ele ment</w>
Gali le
ul tima
sí tě</w>
substan tial</w>
si vely</w>
reak ce</w>
minu losti</w>
ká ch,</w>
kvali tu</w>
inter vention</w>
b re
any thing</w>
Su ch</w>
K ing
z bro
be d</w>
z an
rozhod ování</w>
integra ce</w>
On ly</w>
u dělení</w>
příkla dem</w>
Treat y,</w>
P re
Bel ar
there .</w>
struktur álních</w>
p ite</w>
ka za
bi odi
a head</w>
ší ření</w>
sk len
iniciati vu</w>
in u</w>
úsil í,</w>
začlen ě
vá s,</w>
in su
exercis e</w>
dal a</w>
ro kem</w>
proce ed
dohod y,</w>
th is
men š
encoura ging</w>
st ě
reach ing</w>
do j
con ver
Jed ním</w>
Des pite</w>
A no
změ n</w>
proje vu</w>
mé di
fre qu
a kter
P i
Na příklad</w>
zvyš ování</w>
poně kud</w>
ob tain</w>
graphi c</w>
zo zem
ta dy</w>
sk em</w>
roz mě
prop ag
job s.</w>
hear t</w>
Gre en</w>
significan tly</w>
regula ce</w>
připo mně
lo v</w>
vyzý vám</w>
man dá
krát kod
h ovat</w>
sol ve</w>
wom en,</w>
v ad
p hen
im pli
é st</w>
vyjad ř
passeng ers</w>
oth er,</w>
no ti
mi ž</w>
lear n</w>
famili es</w>
do čas
corre ct</w>
(E C
za sáh
marke ts.</w>
colleagu e</w>
be ha
at tra
Společen ství,</w>
So lid
A by</w>
vo i
teh dy,</w>
str ö
rost oucí</w>
pro vedení</w>
neg ativní</w>
S pe
Dal ší</w>
vy nalo
prostřed ky,</w>
odvět ví.</w>
me ch</w>
vě j
uved l</w>
re fer</w>
poru šení</w>
man age</w>
a s,</w>
vrá tit</w>
plen ary</w>
mate ř
gra te
S tá
Mo ž
východ ní</w>
směr u</w>
net work</w>
na u
minul ý</w>
inte ligent
deleg ation</w>
Portu gu
ú zemní</w>
za ví
va ší</w>
tran spo
svět a</w>
recom men
ni koliv</w>
dvů r</w>
Solid ar
S ingle</w>
201 1.</w>
č tě
milion y</w>
la id</w>
char akter
cestu jících</w>
Poli sh</w>
ří t</w>
tz v.</w>
tomorro w</w>
problé mů
muž ů</w>
industr y,</w>
h im
cal ly,</w>
af for
vá žení</w>
ob vious</w>
da v
( G
rozprav u</w>
potě šen
ovan ým</w>
lid mi</w>
il y,</w>
distribu tion</w>
základ ním</w>
růz nými</w>
ro m</w>
or .</w>
od st.</w>
f é
d len
b on
organiz ací</w>
high est</w>
fir mly</w>
countr y's</w>
M il
I N
předmě tem</w>
happen ing</w>
effectiven ess</w>
e ch.</w>
poděk ovala</w>
po tvrd
A ra
ti vely</w>
re vision</w>
pro dlou
náro č
nu m
de stro
Organi zace</w>
si des</w>
investi c</w>
z ji
vý hrad
vzájem né</w>
Mid dle</w>
pro sin
dit ure</w>
stá tu,</w>
ob e
mo ře</w>
kter ému</w>
Sto ck
thou ght</w>
stat u
od su
oblig ation</w>
diskut ovat</w>
ži je</w>
ál nímu</w>
red un
ot y
kriz i,</w>
introdu cing</w>
hlav ně</w>
y ou
vi g
os la
ob jas
g la
ex plain</w>
an ce.</w>
Uni e.</w>
za řízen
kvali t
Sta bility</w>
tero risti
lo ň
ha zar
demokra t
Proto že</w>
Bu de</w>
se em</w>
ochrán ce</w>
charac ter
Su b
vád í,</w>
te x</w>
ob tain
nu cen
nařízen í,</w>
cel á</w>
ber .</w>
ba d</w>
spojen é</w>
pla y
d i</w>
agri cultu
Všech ny</w>
Fe bru
tal ks</w>
lo ž
enti t
democra ti
vytváře t</w>
pod a
míst ních</w>
manufac ture
ir y</w>
ide as</w>
gran ted</w>
expe cted</w>
cí le,</w>
bi op
an a</w>
M ak
zem i.</w>
sch val
s ound</w>
cooper ation,</w>
M O
čí s
zahá jení</w>
odpově ď
de l
ch ing</w>
B ě
201 3</w>
to tally</w>
tex t.</w>
situ ations</w>
problém ů,</w>
over come</w>
meth ods</w>
inf ring
Pr vní</w>
M c
F rom</w>
ál ními</w>
sv á</w>
sled ovat</w>
k on</w>
Thir dly,</w>
če lit</w>
struct ure</w>
hra zen
cent ur
J apon
tra s
s ím</w>
refle ct</w>
op posed</w>
initi al</w>
go als</w>
člen ství</w>
ov i,</w>
min ority</w>
docu ments</w>
da y.</w>
Fron tex</w>
í li
sugge sti
jader ných</w>
T o,</w>
Fo od</w>
14 2)</w>
vo te)</w>
to ral</w>
to ld</w>
produ cts,</w>
expen diture</w>
defini tely</w>
S itu
žen ím</w>
úko lem</w>
posí len
od had
I S</w>
EUR ,</w>
Ano ther</w>
solidar ity,</w>
resul t,</w>
potravin ,</w>
fáz i</w>
fun da
du mp
deal t</w>
vě jší</w>
po té,</w>
g ,</w>
ex ist</w>
cho ice</w>
ur ban</w>
u mě
hlasování )</w>
ex emp
bude te</w>
zástup ci</w>
im posed</w>
L ist
EI B</w>
- up</w>
) :</w>
writ ten</w>
případ ů</w>
immedi ately</w>
dopad u</w>
vyjád řen
trh ,</w>
reason able</w>
r ing</w>
priorit ou</w>
fon dy</w>
bur den
Gre ek</w>
2 3</w>
témat u</w>
quo ta
posi tions</w>
interest ing</w>
bu l
brá ní</w>
a j
Před e
Nov ember</w>
ž í,</w>
sklen í
se le
po ore
Ex ternal</w>
Affair s,</w>
vy rá
vol ného</w>
spotřebitel é</w>
ship ,</w>
proced ure
p ak
Isra el</w>
ře n</w>
ř í,</w>
si ble</w>
sa ys</w>
připo mí
podni ků,</w>
ná růst</w>
ni miž</w>
nad měr
life .</w>
integ rovan
Spojen ými</w>
I rá
region s.</w>
de ligh
cla im
S om
star ted</w>
pře st
lo ss</w>
li t,</w>
dopra vní</w>
vlá d</w>
re ment</w>
od stav
moder n
go od
M ů
L on
terroris t</w>
spo j
pře su
po vede</w>
ko t
její ž</w>
improv ements</w>
přistěhovalect ví</w>
hodno cen
doporu č
ač koli</w>
W TO
( vote)</w>
udržitel né</w>
sp ace</w>
inov ace</w>
grate ful</w>
de fic
po de
m ů</w>
em u</w>
c ating</w>
práv ním</w>
požada vek</w>
p s
dopra vu</w>
Ital y</w>
C y
C el
Belar us</w>
( hlasování)</w>
zá těž
tel ně</w>
speku la
con ference</w>
Bal k
urgent ly</w>
se cre
pr en
koleg y
institu cí</w>
ful fil
daň ové</w>
zdůraz ňuje</w>
sto ck</w>
přá tel
on going</w>
od mě
ne vyhnu
man i
fe ar</w>
Vyzý vám</w>
2007 -201
ven u
miliar dy</w>
like ly</w>
c li
stran u</w>
pě ti</w>
for ma
trp í</w>
struktur ální</w>
odvět ví
mi cro
f ish</w>
celosvět ové</w>
o č
for th
decisi on-
dale ko</w>
b le,</w>
ab stain
a mi,</w>
Lisb on.</w>
ž e,</w>
t í.</w>
spe ed</w>
roz hov
pro m
poblahopřá t</w>
názor u,</w>
ne budeme</w>
form ation</w>
exces sive</w>
com pared</w>
( D
rou gh</w>
její mž</w>
beha vi
vy slov
reali sti
pre fer
omez it</w>
o ci
mu r
elektrá r
dovo len
al ar
I F
stá tu.</w>
rec y
prim arily</w>
pen sion</w>
off ers</w>
š li</w>
člen ka</w>
stej nou</w>
schop na</w>
od ved
meth od</w>
led .</w>
krátkod ob
ka tegori
harmon isation</w>
ři ly</w>
čin ností</w>
re j
potenci ál</w>
pla yed</w>
jedná ních</w>
environ ment,</w>
L an
náv ště
nedáv né</w>
kriz í</w>
diskrimin ace</w>
Portugu ese</w>
tra vel
ta ge</w>
prote ction,</w>
prev enting</w>
k em.</w>
he a
go t</w>
b lu
I sla
Brussel s</w>
z řej
vehic les</w>
udržitel ný</w>
treat y</w>
stu dent
jedná ní,</w>
ari es</w>
Ger many</w>
vývo je</w>
po ky
jedná ní.</w>
emer gency</w>
deta iled</w>
N ak
I m
v nějších</w>
solidar itu</w>
pi ra
institu tion</w>
em oc
dal šími</w>
sekt oru</w>
recommend ation</w>
our .</w>
mar k</w>
konstruk tivní</w>
en ds</w>
consul tation</w>
D is
zá sob
u važ
slov y,</w>
re d,</w>
ov ě</w>
klíč ové</w>
do kud</w>
dlu h
consump tion</w>
ca ses,</w>
aspe kty</w>
Gre en
řád né</w>
člensk ém</w>
z řízení</w>
režim u</w>
ně no</w>
mí rov
kon ference</w>
Euro po
2 4</w>
zaměřen é</w>
tempor ary</w>
přij ali</w>
požád at</w>
chan ging</w>
allo cated</w>
Bulgari a</w>
up ly
re con
ed y</w>
(S L)</w>
sta ví</w>
oblast í,</w>
han d
cri mes</w>
vo ,</w>
pad ě
názor ,</w>
awar eness</w>
attack s</w>
U K</w>
Nem ě
če ho</w>
vy víje
rozvíje t</w>
re mov
poslan ci,</w>
po tí
osob ně</w>
interest ed</w>
b le.</w>
Th ose</w>
resour ces,</w>
invol ve</w>
e ven
bu ,</w>
Sum mit</w>
Mo je</w>
Croati a</w>
Š véd
úspě ch</w>
trh ů</w>
green house</w>
follow ed</w>
ex port</w>
er ro
S i
Mol dov
M s</w>
člen y</w>
traffi cking</w>
nezby tn
lin k</w>
cer ti
udr ž
propu ště
deligh ted</w>
D oh
z kla
trv ale</w>
skuteč ný</w>
responsibili ties</w>
reali se</w>
míst ě</w>
20 .</w>
wom en.</w>
t ského</w>
ro mad
pravomo cí</w>
politick ým</w>
brá t</w>
čen í.</w>
we ,</w>
vzděl áv
skupin u</w>
regi stra
pří nos
p ady</w>
mod ern</w>
cho i
autom ati
zásad u</w>
un fortunately</w>
ně co,</w>
lid é,</w>
im pres
health care</w>
dan ou</w>
účin nější</w>
ná s,</w>
ne mělo</w>
na znač
ide ologi
g ence</w>
R a
H ovo
ved ou</w>
standar ds.</w>
res er
použí vá
pomo ci.</w>
na li
my sle
itu ,</w>
in si
im pose</w>
gu i
fe el
vědě t,</w>
rati fication</w>
označ ování</w>
my self</w>
Je ště</w>
Finan cial</w>
Exist uje</w>
A K
závaž né</w>
způsob em.</w>
world 's</w>
veřej nosti</w>
questi on,</w>
působ nosti</w>
př inese</w>
proble m,</w>
pev ně</w>
particip ate</w>
mno h
její ho</w>
dimen sion</w>
de a
Braz íli
stabili tu</w>
ob li
auth ority</w>
appro val</w>
Mo hu</w>
zá kaz</w>
zaměst ná
wel l,</w>
svobod a</w>
pati ents</w>
itu .</w>
V an</w>
Nes míme</w>
zaměstnan ců</w>
su rov
societ y,</w>
poli ce
podí l</w>
ak ční</w>
Poli ti
č l.</w>
ver s</w>
oval ,</w>
národ ů</w>
flexi bili
chtě li</w>
ro čně</w>
mno zí</w>
Program me</w>
J a
podpor ujeme</w>
peně z</w>
jíc í.</w>
fi l</w>
circumstan ces</w>
T ím</w>
( K
železni ční</w>
th ing.</w>
tak zvan
st y</w>
require ment</w>
produ ktů</w>
poda ří</w>
informa ční</w>
dov ed
dopra vy.</w>
accoun ts</w>
E A
techni cké</w>
elect ronic</w>
Uni i</w>
sle ch
příprav ě</w>
origin al</w>
od en
d ová
ced .</w>
aktiv ně</w>
adver ti
Hou se,</w>
ve z
te d
ne měly</w>
jm out</w>
deba tes</w>
ab s
A č
ti li</w>
smr ti</w>
roz dělení</w>
region ů</w>
podí le
or u.</w>
ní ch,</w>
lé č
g s</w>
ev ent
at ur
administra tiv
W om
(B G)</w>
ti ve,</w>
konkurenceschop nosti</w>
desi re</w>
b at
at mo
I C
s fé
pé č
ousl y,</w>
on es</w>
ob od
na sto
k ální</w>
dis ap
consum ers.</w>
vio lations</w>
takov ého</w>
ru n</w>
restri ctions</w>
osob ních</w>
ně jaké</w>
harmon iz
flexi ble</w>
vě z
u vádí,</w>
re kla
ra il</w>
r y,</w>
př ine
pres ence</w>
mů žete</w>
ko .</w>
enfor cement</w>
Be z</w>
sta ff</w>
schů z
rov nání</w>
pok ry
podpo rou</w>
plu rali
mluv it</w>
Stra s
Bo hužel</w>
žen ou</w>
zat ím</w>
pomo ci,</w>
návr hem</w>
má te</w>
V A
regula tion,</w>
předlo žil</w>
problém y.</w>
ne máme</w>
depen dent</w>
ck ému</w>
Ser vi
Glob alisation</w>
z pět</w>
sit t
místo předsed
min orities</w>
dopra vy,</w>
ži jí</w>
sc é
s ca
i a,</w>
defini tion</w>
ci pl
auton om
ů :</w>
stak e
jednom ysl
com munit
cle ar
ca se.</w>
actu al</w>
L id
Be fore</w>
stri ct</w>
soci álním</w>
rizi ka</w>
opat r
led na</w>
l ying</w>
ent re
čas u</w>
ni la,</w>
er 's</w>
sch em
pra gmati
ni mž</w>
ne pře
de signed</w>
Přede vším</w>
zne výhod
transport ,</w>
rozpočtov ý</w>
pun ish
plan ning</w>
necess ary,</w>
cooper ate</w>
C ar
201 0
sett le
produk ce</w>
mist ak
z pě
vy řeš
vy hlá
competen ce</w>
appe ar</w>
Roz hod
7 -0
výsled ků</w>
stru gg
set kání</w>
region s,</w>
pod lé
oc cur
f are</w>
employ ment,</w>
dis cipl
chan ged</w>
S Z
volun tary</w>
smlou vy.</w>
ost .</w>
muse jí</w>
minu lo
legisla tion,</w>
hovo řil</w>
exploit ation</w>
expe cta
Závě rem</w>
Stock hol
3 00</w>
á ch.</w>
nov in
nabí zí</w>
měsí cích</w>
entre pren
bud ovat</w>
Octob er</w>
th ing,</w>
o s</w>
men ší</w>
g .</w>
Z em
L ast</w>
če l
z pochyb
o ku
ný br
nej rychle
mlad é</w>
každ oden
dire ction.</w>
cestov ní</w>
certain ty</w>
za slouží</w>
z opak
výz vy</w>
r tu
otáz ky.</w>
okamžit ě</w>
nýbr ž</w>
nejdůležitěj ší</w>
mak ro
jin ého</w>
jed no</w>
in stance,</w>
govern mental</w>
důvod ,</w>
approa ch.</w>
200 6,</w>
u kaza
rizi ko</w>
inten tion</w>
e k.</w>
Evrop u,</w>
vě ci.</w>
vo tes</w>
použí vat</w>
podpor u,</w>
od ár
ně kdo</w>
m o</w>
gu e</w>
M ac
člen ů</w>
č ten
tro chu</w>
sustain ability</w>
sovere ign
pozdě ji</w>
dlouhodob é</w>
ct ural</w>
af ter
usnesen í.</w>
stí ž
příprav y</w>
počá tku</w>
pow er
míst .</w>
integra ci</w>
Z dá</w>
význam ným</w>
un doub
Representa tive</w>
Ira n</w>
Democra ts
1 /
Čí na</w>
zá ří</w>
system s.</w>
figu res</w>
M ari
H am
G az
vol ný</w>
re iter
poskyt nut
pat h</w>
ob vin
missi on
m acro
c ted,</w>
b reak
again .</w>
9 0</w>
z bý
t un
stake hol
pů r
potravin .</w>
oper ating</w>
m :</w>
technologi cal</w>
systé mu,</w>
st able</w>
rá t
mo tiv
Ameri can</w>
( Christian</w>
ž ,</w>
č ili</w>
svě t</w>
sor t</w>
nástro jem</w>
mom ent,</w>
competitiv enes
amen ding</w>
absolutori a</w>
Slov ak
P ac
simp le</w>
přij a
ne mohu</w>
infor m</w>
ga ve</w>
forth coming</w>
e :</w>
cí le
aspe kt
M á</w>
F on
zhor š
s ent
nu tné,</w>
energeti ckých</w>
ch ování</w>
Stras bour
rozhodnut í.</w>
pl nou</w>
ne pro
čer p
í ch,</w>
support ,</w>
propos ing</w>
polici es,</w>
po té</w>
credi bility</w>
Bě hem</w>
zdůraz nil,</w>
to ols</w>
takov á</w>
ru m</w>
resul ting</w>
ov i
nict ví,</w>
m ile</w>
ap plying</w>
vzdělá ní</w>
vyjednáv ání</w>
un fortunately,</w>
ukon čení</w>
top i
st rá
souvise jících</w>
sk a.</w>
pracov ního</w>
k ý</w>
k t</w>
k lon
Na vr
Lon d
u vést</w>
ti la</w>
prote ction
ot h</w>
m ou
lo se</w>
ško l
uvol nění</w>
perfor man
or u,</w>
Ji ž</w>
ž ď
zása d</w>
tras bur
tick á</w>
territ ory</w>
subsidiar ity</w>
smlou vy,</w>
minist er
jedin ý</w>
invest ovat</w>
avi ation</w>
še sti</w>
to p</w>
re tur
prosaz ovat</w>
nezbyt ná</w>
ka ž
interne tu</w>
fin ding</w>
fi cial</w>
demo grafi
cel kové</w>
sna hy</w>
sc ru
přij al</w>
pochy by</w>
koleg ům</w>
hospodář ském</w>
ga in
custom s</w>
M ůžeme</w>
Com munit
ú dá
spen ding</w>
n ing,</w>
mechanis mu</w>
le s,</w>
čt ení</w>
struktu rali
silni ční</w>
health y</w>
Stru ctural</w>
L ast
šen í.</w>
ře ší</w>
závis í</w>
traffi c</w>
sp lan
sklení kových</w>
pre mi
maxim ální</w>
K ar
Georgi a</w>
zákon odár
symbo li
od e</w>
nost i
la ter</w>
in ess</w>
group ,</w>
fir m</w>
fak tor
ag ing</w>
accep ted</w>
ta m,</w>
ste ,</w>
rov né</w>
přijí mání</w>
poten ti
ku před
jmen ším</w>
guarante eing</w>
dohod y.</w>
ch es</w>
y s.</w>
vzdělává ní,</w>
qu e</w>
přesvědčen i,</w>
portu gal
mo c</w>
léka ř
grow th,</w>
do .</w>
appro ach
Con ference</w>
tradi tional</w>
f ers</w>
equ ally</w>
en í.</w>
demonstra te</w>
any one</w>
Prote ction</w>
Presid ency.</w>
výrob u</w>
so le
samot né</w>
dru žení</w>
doh led</w>
decisi ve</w>
pomo c,</w>
politi kou</w>
plá ny</w>
iniciati va</w>
enlar gement</w>
e ?</w>
administra tion</w>
zájm ů</w>
zmí nit</w>
zaměst na
u dě
spo ke</w>
r .</w>
te lem</w>
systé mu.</w>
přísluš ných</w>
po měrně</w>
on emoc
Bud eme</w>
země mi,</w>
okol ností</w>
childr en,</w>
acqu is</w>
Palest inian</w>
C u
žen y,</w>
tr pě
or ů</w>
negoti ations.</w>
ha te
Turk ish</w>
ú ct
zaru čit</w>
ultima tely</w>
služeb ,</w>
scho ol</w>
s )</w>
re ac
od va
marke ts,</w>
employ ed</w>
condu ct</w>
Svět ové</w>
zá tě
uni vers
udá losti</w>
samo tn
po volení</w>
job s,</w>
diplom ati
cháze jící</w>
zahá jit</w>
statisti cs</w>
rule s.</w>
rozvin ut
přístup ,</w>
následu jící</w>
na opak</w>
klíč ových</w>
g reat
ener gy.</w>
dire ctive.</w>
authori ties,</w>
ar chi
u ses</w>
slov o</w>
sil né</w>
obec né</w>
barri ers</w>
a mi.</w>
T uto</w>
8 ,</w>
áv ám</w>
v ent
regre t
práv ně</w>
friend ly</w>
Dí ky</w>
zá chran
pre pare</w>
peace ful</w>
fac tor</w>
fa il</w>
demokra tických</w>
agen ci
C I
še st</w>
sur pris
pro cu
po prvé</w>
medi cal</w>
lin ed</w>
ili .</w>
il o,</w>
d ed.</w>
chudob y</w>
W el
NA TO
149 )</w>
spe ech
souhla s</w>
vá mi</w>
th s</w>
ste ad
re strukturali
pos ing</w>
občan y,</w>
neighbour ing</w>
legitim ate</w>
dan ger</w>
Re search</w>
Ir sku</w>
ter m,</w>
pla ying</w>
perspe ctive</w>
mal ým</w>
civil ní</w>
al o,</w>
ab sur
Minist er,</w>
7 0</w>
t at</w>
se a</w>
ro g
regula ci</w>
princi p
pos lou
mě ří
mon o
ativ ních</w>
Fer re
F ish
Au stri
ter .</w>
or der
nat ur
lá de
by ch,</w>
ac knowled
čen é</w>
vě c,</w>
stran a</w>
soutě že</w>
směrni ce,</w>
reci pro
poskytn e</w>
phen omen
otáz ka,</w>
ful fil</w>
do jít</w>
communi ties</w>
clo sed</w>
authori ties.</w>
asse ss</w>
I ran
rozsa hu</w>
předpis y,</w>
prom is</w>
hovo ř
examin e</w>
defin ed</w>
de ch,</w>
Dou f
n ou
mu ž</w>
mom ent
ad i
- based</w>
ve če
v at.</w>
undoub tedly</w>
soused ství</w>
se l</w>
respe ctive</w>
podpor ují</w>
plan ned</w>
odhod lání</w>
it i</w>
h y,</w>
dů vod</w>
CA P</w>
C E</w>
B lack</w>
(K řesťan
wh ilst</w>
trh .</w>
reje ct</w>
pé či</w>
poin t.</w>
ne za
na vš
kam pan
il lan
argu ment
Y et</w>
žen .</w>
Ú mlu
uved l,</w>
refuge es</w>
re si
příspě vek</w>
kla ,</w>
cí li</w>
Š trasbur
vý bo
učin ě
sto od</w>
ost rov
op tim
o ffici
důležit ost</w>
contro ls</w>
com ment</w>
care fully</w>
al one</w>
D e</w>
ál ů</w>
tran splan
re venu
ban king</w>
subje kt
si lá
produ ctive</w>
of fer
něj šího</w>
né st</w>
dě di
dire ctive,</w>
di vi
demonstra ted</w>
L it
vy ví
stabili ty,</w>
proble ms,</w>
oper ational</w>
lé d
fron t</w>
f ,</w>
ci t</w>
s al
prohlá si
produk ty</w>
l ým</w>
im migra
Poli cy</w>
A .</w>
á ny</w>
wel fare</w>
vojen ské</w>
třetí mi</w>
mon etary</w>
ma ce
m ou</w>
draw ing</w>
dal i</w>
bri ef
úspěš ně</w>
zdro jů,</w>
trea ted</w>
repe at</w>
reali zaci</w>
připomen out,</w>
kom pe
constan tly</w>
cit liv
z odpově
proper ty</w>
efe ktivní</w>
dru h</w>
doku ment</w>
deleg ace</w>
continu ed</w>
c s,</w>
anim als</w>
Je st
1 ,
wom en's</w>
výhod y</w>
v at,</w>
u hlí
spoluprá ci.</w>
prepar ing</w>
po tom</w>
zdro jů.</w>
st rea
rou gh
qu anti
nástro je,</w>
m ých</w>
jednot né</w>
h it</w>
grow th.</w>
P ubli
2 /
znač ně</w>
zkušen osti</w>
sezna m</w>
representa tive</w>
re zer
po znamen
ni jak</w>
jud g
har m
Pře sto</w>
work ers,</w>
childr en.</w>
atta ck</w>
Audit ors</w>
že k</w>
zpráv a,</w>
venkov ských</w>
stá t,</w>
regula tion.</w>
ob ha
komuni k
ha ve,</w>
f y
ekonomi ky</w>
budouc nosti.</w>
ž í.</w>
přispě je</w>
klíč ovou</w>
g one</w>
freedom ,</w>
arran g
zamě ř
sp end</w>
reje cted</w>
regula r</w>
pozor nost.</w>
no rem</w>
n ské</w>
fe at
ed ed</w>
dod r
conta ct</w>
ce r</w>
al -
zjev ně</w>
zeměděl ství,</w>
s port</w>
program me.</w>
kontin ent
jest liže</w>
demo graphic</w>
b om
č tí</w>
č ila</w>
systé m,</w>
podpo ří</w>
pas s</w>
forwar d.</w>
de s,</w>
A bychom</w>
z nalo
vz nes
toge ther.</w>
pok ou
p hy
návrh ů,</w>
elek tri
degre e</w>
a te.</w>
Solidar ity</w>
závě ry</w>
vlád y,</w>
určit ou</w>
targe ted</w>
s can
na místo</w>
ag o.</w>
accep table</w>
Re publi
Mol dav
B us
vá ch</w>
sub sequ
schop nosti</w>
problé m.</w>
občan y.</w>
ní m.</w>
mar gin
enjo y</w>
tak to</w>
respekt ovat</w>
oper ate</w>
br ings</w>
By la</w>
9 ,</w>
závě re
su itable</w>
se ts</w>
region u.</w>
ovan ě</w>
om in
k lid
indi cat
group s,</w>
c ům,</w>
W e
6 /
we apon
ter ,</w>
surve illan
prax i</w>
politici ans</w>
po by
označ ení</w>
o živ
identi fy</w>
dot k
confli cts</w>
trest u</w>
one c</w>
odstran it</w>
import s</w>
hate ver</w>
fac tors</w>
děl ování</w>
Co operation</w>
Cha mber</w>
regar d,</w>
posi tion.</w>
hrani c</w>
dosa žen
concerne d.</w>
bi r
Rusk em</w>
t kem</w>
přírod ních</w>
pla cen
partner y</w>
ostat ními</w>
dem i
condi tions.</w>
bezpečnost ních</w>
acti vely</w>
Strate gi
P SE</w>
Nak onec</w>
ta lit
obser v
hra je</w>
focu sed</w>
Skup ina</w>
S up
Pře stože</w>
F a
transport .</w>
tr ž
resolu tions</w>
dodrž ovat</w>
(P řed
transi tion</w>
substan ces</w>
mož ností</w>
diskrimin aci</w>
dire ctives</w>
aver age</w>
an e
a te,</w>
Parlament ,</w>
P la
skuteč nost</w>
rovnová hu</w>
re ces
ra il
obchod u,</w>
label ling</w>
geo graphi
Hou se.</w>
B aro
separ ate</w>
re struct
one the
l ini
al ly.</w>
D uring</w>
3 0
(Před sed
trans fer
sur vi
subje kty</w>
smě rem.</w>
re min
pi e
konferen ci</w>
Mož ná</w>
zpravodaj ům</w>
prostřed ků,</w>
pro ve</w>
pochopitel ně</w>
infrastruktur y</w>
ar ti
zpravodaj .</w>
za zně
spravedl nost</w>
s myslu
resol ved</w>
průmysl ,</w>
otáz ek,</w>
ne ither</w>
mož no</w>
kom un
ka jí</w>
Ně které</w>
D u
šir ší</w>
š et</w>
řečen o</w>
znepoko jen
vozi d
přine jmenším</w>
ko lem</w>
intel lect
health ,</w>
ga in</w>
P ova
M á
valu able</w>
ma žď
gi ble</w>
gener ation</w>
fel t</w>
co -
as sure</w>
Gu an
quali ty,</w>
považ uje</w>
possi bili
podmín ky,</w>
im peri
g li
M ich
Last ly,</w>
E .</w>
prior it</w>
kom pli
environment ální</w>
dis pos
contain ed</w>
condi tion</w>
C ol
ště stí</w>
ú nor
vě cí,</w>
un fair</w>
připraven i</w>
member ship</w>
freedom s</w>
f ó
announ ced</w>
abu c
Ze jména</w>
State .</w>
Po land</w>
Mak edoni
ří ct,</w>
posí li
pla ce,</w>
ko ho
invol ves</w>
economi c,</w>
da ted</w>
výda jů</w>
vyrá bě
vy jas
univer z
su spen
dre ds</w>
don e.</w>
bu .</w>
Publi c</w>
Ř í
takov ou</w>
svě ta.</w>
prote cted</w>
poslan ec</w>
odpověd i</w>
lim its</w>
im possible</w>
de sig
ct :</w>
Ar cti
2 1</w>
ú zce</w>
é ho.</w>
wa iting</w>
uni ted</w>
požadav ků</w>
po rozu
jen om</w>
hol ding</w>
hodno tit</w>
belie ve,</w>
a ce,</w>
Russi a,</w>
G en
E P</w>
vod y</w>
v če
ty pes</w>
strategi es</w>
see ing</w>
pro hi
prim ary</w>
pla ces</w>
pa le
ování hod
ne měl</w>
li ty</w>
wh o,</w>
uply nu
politi ku.</w>
ne rov
ma ,</w>
ka mi,</w>
dobr ých</w>
ba se</w>
N abuc
Dohod a</w>
Ad justment</w>
veče r</w>
t né</w>
ro un
h ,</w>
consider ing</w>
bezpeč nosti.</w>
Pova ž
Chin a,</w>
vá š</w>
oblaste ch.</w>
hlí žet</w>
earli er</w>
Střed omo
Soci alist</w>
wi de
suf fer</w>
spo ken</w>
speak er
přeru š
pas sed</w>
low ing</w>
entit led</w>
V e
Ha iti</w>
význa mu</w>
ris ing</w>
po c
lá t
d ál
sy ner
skupin y,</w>
sa ve</w>
ra w</w>
peč livě</w>
objective s.</w>
inform ation,</w>
ga ž
fun ds.</w>
člen ové</w>
t ské</w>
reason s,</w>
ová ny.</w>
o cen
gla d</w>
H ai
maintain ing</w>
decision- making</w>
co l</w>
cisi on</w>
AL DE.</w>
region álních</w>
hodno tu</w>
cho ose</w>
ši ly</w>
zřej mě,</w>
záležito sti,</w>
po rate</w>
hospodář sk
highligh ted</w>
fa i
demokrat ů
declar ation</w>
c eme</w>
Ch ceme</w>
7 ,</w>
j at
informa ce,</w>
fra ud</w>
dů kaz
duš ev
V I
Baro ness</w>
vzájem ně</w>
vr cho
tour ism</w>
tick ý</w>
střed ním</w>
s mu
re s,</w>
přijí mat</w>
of fered</w>
defici t</w>
ce ?</w>
bi gge
s cen
republi ky</w>
pover ty.</w>
ha jí</w>
bo ard</w>
a -
Serbi a</w>
2 6</w>
1 0.</w>
š la</w>
to talit
te mber</w>
sch eme</w>
ně n</w>
lea st,</w>
immigran ts</w>
d at
Sep tember</w>
zaru čen
z volen
ve s
mír a</w>
jin ým</w>
il y.</w>
i la,</w>
dru hy</w>
F i
C C
201 3.</w>
udr žet</w>
ro ční</w>
násled ně</w>
conclu ded</w>
bezpeč nosti,</w>
Rad u</w>
zapo jit</w>
ur s
tá na
práve m</w>
occu p
lu jí</w>
gran t</w>
deli ver</w>
břez na</w>
attitu de</w>
shro mažď
reli able</w>
pohy b</w>
hy po
fo ot
důležitěj ší</w>
tr é
t ?</w>
re le
polit ováníhod
plea se</w>
nut nost</w>
muse li</w>
fir stly,</w>
co ast
agentur a</w>
With out</w>
K al
rá da,</w>
rybo lov</w>
on a</w>
ná hra
dob a</w>
ch e
wil ling</w>
vz e
th ings,</w>
pro sad
mechanis my</w>
demokraci e,</w>
Safe ty</w>
Guan tána
č ných</w>
zastav ení</w>
v čera</w>
tin y</w>
pře ká
pro vá
oper ations</w>
nes praved
nej chud
nan e
le s.</w>
intenzi v
guarante ed</w>
dopl ň
M ore</w>
Inve stment</w>
1 9</w>
u d
sv ému</w>
orgá n</w>
o x
necess ary.</w>
ha bit
h omo
cili ation</w>
bigge st</w>
an gaž
Th urs
Bos ni
B lí
ý š
techno lo
stát ních</w>
schvá lení</w>
person ally</w>
li cen
bo o
L ati
re z
dobr á</w>
dlou hou</w>
Soci ali
201 1,</w>
2 2</w>
ú k
zá pis
spl nit</w>
použí t</w>
ply nu</w>
op tion</w>
fra g
dv ora</w>
cest ou</w>
ced ,</w>
N ot</w>
svobod né</w>
sub mit</w>
sh ing</w>
prior ity.</w>
kom promis</w>
agent u
Vě t
Ji žní</w>
zbro jen
zastav it</w>
podni ků.</w>
led ,</w>
dist or
Lati n</w>
š né</w>
u přednost
ne souhlas
la test</w>
for my</w>
Fre e</w>
význam ně</w>
situa ce.</w>
reži m</w>
poslan cům</w>
ov at
operat ors</w>
ká ch.</w>
itself .</w>
d ky</w>
con tradi
appreci ate</w>
Z vlá
považ ovat</w>
extre mis
dě je</w>
der i
(EC )</w>
zákla dem</w>
zdůraz nil</w>
wish es</w>
vy slech
vy pracovat</w>
voleb ní</w>
sovere ign</w>
pomo c.</w>
dec la
D anu
work ers.</w>
proce su.</w>
par t,</w>
j un
intel lig
e pi
Agri culture</w>
zpravodaj ce</w>
více let
vysvět lení</w>
v stup</w>
r o</w>
ot a</w>
odhod lá
VA T</w>
Na vzdory</w>
solu tion.</w>
půj č
prosper ity</w>
pozměňov acím</w>
p t</w>
k i
inform ovan
do stáv
di ag
affe cts</w>
3 /
ú řady</w>
si vní</w>
o zna
ne poslední</w>
ne exist
finan cov
a jí,</w>
či tel
ú mr
zavádě ní</w>
s ation.</w>
rozpočtov ou</w>
mention ed,</w>
mas s</w>
jest li</w>
inf la
dří ve,</w>
com pati
V a
tack ling</w>
shromá ždění</w>
s si
s mysl</w>
probí há</w>
li di,</w>
it al</w>
di v
colleagu e,</w>
Je ho</w>
E v
úk or</w>
popula ce</w>
phy si
individu als</w>
hru ba</w>
as i</w>
Organis ation</w>
I M
Ci vil</w>
A pri
tisí ci
práv ními</w>
obstac les</w>
emer ging</w>
dobr ým</w>
com mission
a ch</w>
zahrani čních</w>
ová na.</w>
konz erv
entrepren eur
ch vá
bene fici
Regi onal</w>
Apri l</w>
ú vod
z práv</w>
ter ro
ten tion</w>
situa ci.</w>
rop y</w>
příšt ího</w>
obnovitel né</w>
ně ní,</w>
nezaměstnan osti</w>
mon th</w>
j ila</w>
diplom atic</w>
ba ron
au dit
Mer co
J en</w>
- European</w>
zd vi
vnit ř</w>
vlast ním</w>
pře trv
osob ,</w>
ne se</w>
jí mž</w>
coher ent</w>
biologi cké</w>
be ,</w>
ad vis
Ju ly</w>
Fon du</w>
vyz vat</w>
vy dá
t ly,</w>
ra ising</w>
přesvěd č
pře h
produ cent
determin ed</w>
colla bo
co t
T ak</w>
F ol
vyžad ují</w>
vnitř ním</w>
vi di
resear ch,</w>
přispí vá</w>
pracovní ky</w>
inform ation.</w>
com e.</w>
to xi
souvis í</w>
obrov ský</w>
lead ership</w>
kapit ál
k at
jedin ě</w>
is o
consul ta
Toda y</w>
rozhod ující</w>
r ,</w>
pracu jí</w>
pale stin
biop ali
V en
Jest liže</w>
vš em,</w>
výhrad ně</w>
vel y.</w>
podni kům</w>
passen ger</w>
jedin ým</w>
f em
do lož
abs ence</w>
Gro w
vzta zích</w>
vy sla
tri ed</w>
reque sted</w>
Ze len
Pa per</w>
(Křesťan ských</w>
zalo žena</w>
vo lič
system s,</w>
si m
repres ented</w>
re pre
podni ky.</w>
health .</w>
enhan ced</w>
ap par
affe cting</w>
Vý sled
B ro
červ na</w>
to to
se ve
pover ty,</w>
po stupovat</w>
ou s,</w>
agreem ents.</w>
Russi a.</w>
čer ven
who le.</w>
vy stoup
vlast ního</w>
sl áv
sever e</w>
laun ched</w>
du chu</w>
dob ře,</w>
9 /
2 1.</w>
žád ném</w>
áv áme</w>
soustřed it</w>
se ven</w>
respekt ování</w>
předsednict ví.</w>
ní zk
dí tě
ck é,</w>
Uni e,</w>
Pak ist
F )</w>
vě ku</w>
sna ze</w>
signá l</w>
rodi č
ro o
meet ings</w>
fic ations</w>
dostup né</w>
OL A
zahrnov at</w>
st re
rela tes</w>
přím é</w>
před ví
pursu e</w>
ne js
ká zá
hled ání</w>
h romad
energi i</w>
Bar ni
respek tu
reali stic</w>
propo ses</w>
plen ár
návrh u,</w>
lá r
hun dreds</w>
di versity</w>
cház ení</w>
campa ign</w>
S P
zalo žené</w>
vy ko
publi shed</w>
lo žení</w>
dal šího</w>
cen u</w>
Cy pr
říká ,</w>
upřím ně</w>
t ř
přezku mu</w>
předcho zí</w>
l or
is ť
incor pora
for ce.</w>
condi tions,</w>
19 7
při z
předpis ů,</w>
ner .</w>
jim i
intellect ual</w>
fung ovat</w>
experi enc
de s.</w>
Ned áv
Ne ther
znepoko ju
vyso ká</w>
s ac
k ům.</w>
jednotli vými</w>
adap t</w>
On ce</w>
Mez i</w>
vá žený</w>
vá me,</w>
ti to</w>
služeb .</w>
mo ,</w>
mas sive</w>
j ur
im ag
en ých</w>
S IS</w>
ň uji</w>
význa m.</w>
správ u</w>
some one</w>
průmysl ové</w>
hla su
addres sing</w>
z y
z e.</w>
vyh lí
u jícího</w>
spoluprá ci,</w>
rozpočt ových</w>
jimi ž</w>
dou ble</w>
dom ov
at s</w>
4 /
pad á</w>
nov ém</w>
navš tí
month s,</w>
kdy bychom</w>
increa ses</w>
fy zi
ex tré
es :</w>
Situ ace</w>
vi rtu
peop les</w>
e li</w>
dis advanta
determin ation</w>
defin e</w>
amoun ts</w>
Ni zozem
N ow
zen í,</w>
trest né</w>
spl nění</w>
nezávis lost</w>
gener ally</w>
coura ge</w>
ca tes</w>
í :</w>
vě t</w>
souhla sit</w>
sa w</w>
před běž
pracu je</w>
pou h
example .</w>
žádo sti</w>
střed ně
postup ně</w>
poskytu jí</w>
other wise</w>
other s,</w>
net works</w>
le j
k s,</w>
groun ds</w>
exper ts</w>
ex t
da tel
d ed,</w>
Každ ý</w>
st ov
pro ud</w>
mun ist</w>
let í.</w>
dow n
c tions.</w>
bud ov
zdra ví.</w>
ye r</w>
součas nou</w>
s chod
posi tion,</w>
pl nit</w>
pe ,</w>
hla š
au to
re view
oval a,</w>
nation s</w>
min ori
fun ds,</w>
en h
deta ils</w>
campa ig
ak ce</w>
S ,</w>
Ira q
Grow th</w>
Blí zk
vzta huje</w>
soudrž nost</w>
regula ční</w>
ov é.</w>
dire ct
cle ar,</w>
Spa in</w>
Sm all</w>
Mal m
Con su
vole b</w>
přístup .</w>
l né</w>
k s.</w>
k cion
inov ací</w>
eng age</w>
d ře
d less</w>
corrup tion</w>
ad e</w>
život nímu</w>
ý m,</w>
zástup ce</w>
we b
strategi í</w>
speaker )</w>
ra dě
plán ování</w>
il lu
group s.</w>
enh ance</w>
Z as
Presid ent.</w>
2 1
' no
ží t</w>
pá r</w>
posil ování</w>
ob vi
následu jících</w>
nov ými</w>
mu s,</w>
globali zaci</w>
de sá
condem n</w>
Ukra in
T A</w>
E R
spoluprá ce,</w>
podpo řila</w>
per secu
ní k</w>
míst ,</w>
g an
ck ed</w>
ce :</w>
am ong
U K
C am
vis it</w>
va jících</w>
spoluprá ce.</w>
soudrž nosti,</w>
s u</w>
regula ted</w>
proced ure.</w>
pap í
obnov y</w>
nor ma
kriz i.</w>
ji ž
agen da.</w>
V ím,</w>
Nether lan
žád á</w>
ál ní,</w>
těž ké</w>
t j.</w>
sv r
největ ším</w>
ne přiměřen
chu době</w>
Zadruh é,</w>
Ja pan
A no,</w>
ře kla,</w>
ý ch
u vnitř</w>
t ně</w>
sup ple
rozhod nu
rov ých</w>
re m
ná růstu</w>
k ti
jí m</w>
itself ,</w>
ez u
contribu tions</w>
c s.</w>
among st</w>
spo jení</w>
sp á
ro po
provo zu</w>
ně muž</w>
l ů</w>
f an
ex ce
employe es</w>
dob y,</w>
disast ers</w>
budouc ích</w>
ai d.</w>
Spojen ého</w>
Pale stin
Brit áni
th -
propor tion</w>
ná sob
negoti ations,</w>
matter ,</w>
geographi cal</w>
ex plain
ed ing</w>
dru hu</w>
c op
Malm strö
Commit te
z hruba</w>
většin u</w>
sta y</w>
pre -
par lamentem</w>
nedostat ku</w>
man ner</w>
endor se</w>
counter fe
candi date</w>
He ad
Exist ují</w>
(Předsed ající</w>
že li</w>
zač le
supervis ory</w>
speak ers</w>
pro ved</w>
poc it,</w>
finan cí</w>
ar m
Trans port</w>
1 1.</w>
zd á,</w>
za ci,</w>
te k,</w>
S údá
D .</w>
produ cing</w>
g er
el se</w>
e ts</w>
al koho
EC B</w>
Bru sel
vů r
vy lep
plate b
p sy
nen a
jí ž</w>
globali sation</w>
employ ment.</w>
cour t</w>
assi stan
zd an
vyjád řila</w>
ter m.</w>
stej ný</w>
spraved livé</w>
re ver
přezku m</w>
publi c
large ly</w>
ká m,</w>
justi fied</w>
enab ling</w>
electri city</w>
ved ou
rule s,</w>
righ t.</w>
ga p</w>
en vis
em en
e astern</w>
dostateč né</w>
cent re</w>
Stá le</w>
Indi a</w>
ř isť
znamen at</w>
středně dob
slou žit</w>
růst u,</w>
hazar d
er nity</w>
approa ch,</w>
S im
Au th
(D A)</w>
úřad u</w>
zí ho</w>
vý dě
tra de,</w>
takov ým</w>
struct ures</w>
spotřebitel ů.</w>
produ ktiv
podpo řili</w>
orgá nu</w>
list en</w>
konfli kt
hu jící</w>
go sláv
a :</w>
závis losti</w>
tab ly</w>
strategi cké</w>
prostřed ků.</w>
domá cí</w>
criticis m</w>
M í
é di
w ing</w>
v u.</w>
u m,</w>
ten ,</w>
sugge st</w>
strengthen ed</w>
smlou vu</w>
nut ím</w>
navrh la</w>
na chází</w>
lá tek</w>
len ce</w>
gen oci
exten sion</w>
as sist</w>
Sch engen
vdě č
regi st
předlo žené</w>
podob né</w>
novin ář
materi als</w>
jin ý</w>
insu rance</w>
chc eme,</w>
bod u</w>
be comes</w>
al y,</w>
ai d,</w>
Hung ary</w>
zaměst nání</w>
wis e,</w>
under stand
success fully</w>
rozsa h</w>
předsed ovi</w>
pl ant</w>
op ti
kr mi
jist ,</w>
h nout</w>
ch air
ali ance</w>
přírod ní</w>
při danou</w>
multi lateral</w>
k ers</w>
hlas ováním</w>
deb ating</w>
author .</w>
zeměděl ci</w>
vyko řisť
vyh nout</w>
stabili ty.</w>
prv ního</w>
obě ma</w>
jed nal
extre me</w>
diver si
border s.</w>
K la
ý ch.</w>
z ují</w>
uspoko ji
soukro mé</w>
soudrž nosti.</w>
sci ence</w>
perspe ktiv
ou s.</w>
energi í</w>
compani es,</w>
al so,</w>
Ví me,</w>
C 6-0
w hatever</w>
vyšet ř
u pev
ty pu</w>
nes práv
em i,</w>
avo i
Y e
Inter nal</w>
In stitu
vy bí
vo te,</w>
te ach
stave b
s wi
rozší řit</w>
re su
rat ori
pa ying</w>
m ém</w>
laun ch</w>
koleg ů</w>
eurozó ny</w>
dě ku
Y u
L ef
u zaví
prote kcion
parlia ments</w>
orgán y.</w>
ne ar</w>
liber al</w>
ful .</w>
domá c
contribu ted</w>
con t
compen sation</w>
committe es</w>
bez pochyby</w>
zdra ví,</w>
vy pracování</w>
stát ům,</w>
př ání</w>
par ad
obchod u.</w>
in ské</w>
in ation</w>
em bar
důvě ry</w>
au di
ag ency</w>
D /
výda je</w>
under tak
time s,</w>
spotřebitel ům</w>
společ ném</w>
po ta
pi pe
ov ali,</w>
ofici ální</w>
od stra
no ted</w>
legislativ ního</w>
hlou b
condu cted</w>
výdě leč
verthe less</w>
va š
suffici ently</w>
stanoven é</w>
re lease</w>
propos als.</w>
priv ati
other s.</w>
na slou
differ ence</w>
contr ary,</w>
b ani
Verts/AL E</w>
ve k,</w>
s mí
qu ar
orgán ů.</w>
j d
důvod em</w>
bas is.</w>
alis m</w>
Per haps</w>
úda jů,</w>
uvědom it,</w>
tab á
st aly</w>
sil nou</w>
původ ní</w>
přij aly</w>
pravomo c</w>
květ na</w>
inten ds</w>
han ds</w>
em e-li</w>
absolu te</w>
Febru ary</w>
Egyp t</w>
tr žní</w>
rozu mi
re vid
pro zkou
premi é
pozo ro
orgán ů,</w>
nict ví.</w>
month s.</w>
jim ž</w>
enough .</w>
Rom pu
áv ající</w>
změ nou</w>
venkov a</w>
up .</w>
uni on</w>
součas ná</w>
sexu ální</w>
připraven a</w>
fi ed.</w>
con vi
R i
As sem
zákaz u</w>
ukaz uje</w>
t vůr
st í,</w>
sou du</w>
sk o
offi ce</w>
kte m</w>
e p
de stru
as ing</w>
Se cre
řek la</w>
výbor u,</w>
top ic</w>
ste ch,</w>
obě ť
lead s</w>
dec ent</w>
de va
be .</w>
ab use</w>
tisí c</w>
re r</w>
ne přízni
is lá
da iry</w>
bo ost</w>
T í
Mno ho</w>
Ire land,</w>
Galile o</w>
suf fered</w>
st -
sociál nímu</w>
poslan kyně</w>
otev ření</w>
fo od
ffi r
en ces.</w>
b ou
b lin
ří me,</w>
řád u</w>
sou bor</w>
region ech</w>
poskyt nutí</w>
hlas ování,</w>
appro xim
ac ting</w>
S o,</w>
I D
D/ DE
D ne
země mi.</w>
tr vat</w>
t á</w>
simpli fy</w>
s man
požad uje</w>
pa mat
excep tional</w>
dlou h
a ce.</w>
Sub je
C re
ěj ších</w>
zpravodaj ka</w>
su ver
rych lé</w>
pravid la,</w>
místo předseda</w>
li n</w>
example s</w>
bod i
ba mi</w>
ac knowledge</w>
z .</w>
uži vatel
up ,</w>
studi e</w>
schengen ského</w>
rovnová hy</w>
posto je</w>
plan ts</w>
performan ce</w>
obnov ení</w>
elektro ni
ch :</w>
IN D/DE
z he
ve ssel
tomorrow .</w>
tisí ce</w>
sto letí</w>
sil ný</w>
open ed</w>
ná prav
nej lépe</w>
kro ky,</w>
da ily</w>
appro ve</w>
an ci</w>
ac tion,</w>
Tí mto</w>
" ne
wi der</w>
výz vu</w>
ukaz ují,</w>
regar d.</w>
předpis ů.</w>
program me,</w>
odrá ží</w>
num bers</w>
il ing</w>
dopad ů</w>
car s</w>
avai lab
Spojen ém</w>
D ob
vy má
val y</w>
tla ku</w>
strategi e,</w>
sr d
sever ní</w>
ro ku.</w>
revi zi</w>
re pea
pů dy</w>
ote ví
ná m,</w>
konflik tu</w>
b ránit</w>
P SE
200 0</w>
zvý ší</w>
recor d</w>
f low
argu ment</w>
I I
C an</w>
zá kon</w>
zneuží vání</w>
vědom i</w>
skil ls</w>
se stav
samostat ně</w>
quali fied</w>
pri vi
jí ch</w>
j uje</w>
en ci</w>
communi cations</w>
Al zhe
úko l</w>
th ro
te :</w>
sil nější</w>
schop ny</w>
opini ons</w>
na je
koleg ové,</w>
for ce,</w>
confir m</w>
ce ;</w>
K u
zamě řuje</w>
resul ts.</w>
pro sím</w>
pres ent,</w>
po sel
ně ním</w>
ní z
lear ning</w>
kon sen
dri ving</w>
deman ding</w>
c ore</w>
an ni
Th us,</w>
Řeck o</w>
čem u</w>
í ?</w>
zneči šť
vá .</w>
ved lo</w>
soutě ž</w>
s inc
s ation,</w>
příšt ím</w>
proje ct.</w>
oval .</w>
on line</w>
mu st,</w>
mploy ment</w>
čin nosti,</w>
tele vi
svět ového</w>
sav ings</w>
righ t,</w>
resul ted</w>
ra kov
na hra
mo ral</w>
lid em,</w>
gran ting</w>
druh ů</w>
c ode
ac emi</w>
ze lené</w>
vidě t</w>
tvrd í,</w>
srov nání</w>
simpli fication</w>
sh aring</w>
pří pady</w>
prosin ci</w>
interest s.</w>
inter net
innov ation,</w>
h y.</w>
elimin ate</w>
ca su
Za prvé</w>
Nemě li</w>
wee k,</w>
vy zdvi
v ého</w>
správ né,</w>
responsibili ty.</w>
přin ést</w>
m ag
inform ovat</w>
emis sions.</w>
dokon al
depen ds</w>
demokraci e.</w>
confir med</w>
cho rob
AC P</w>
č in</w>
toge ther,</w>
respon ding</w>
ob ra
n er,</w>
k ře
inde ed,</w>
fav ourable</w>
Sy st
Jin ými</w>
F u
Con tro
v před
stá n
slo v</w>
oh roz
hled at</w>
concer n
žen ého</w>
čet ního</w>
u :</w>
traffi ck
stan ds</w>
součas ných</w>
sh ould,</w>
sděl ovacích</w>
poore st</w>
ny ní,</w>
lat ter</w>
douf áme,</w>
dokument u</w>
demokra ti
decla red</w>
compe tent</w>
Dom ní
řeční ka</w>
vě n
ujist it,</w>
sk o.</w>
ozná men
ma je
ma .</w>
h ned</w>
expecta tions</w>
e ty</w>
N ational</w>
Brusel u</w>
řízen í,</w>
zdro jem</w>
sp ite</w>
práv u</w>
obyvatelst va</w>
norm al</w>
komisař ka</w>
et ni
appe ars</w>
Y es,</w>
Gree ce,</w>
záru ky</w>
západ ní</w>
standar ds,</w>
pracov ním</w>
pe .</w>
no t.</w>
nar ů
hel ped</w>
h ours</w>
vlast nictví</w>
to rem</w>
sou thern</w>
rap id
ní me</w>
jedin ou</w>
šk r
říj na</w>
prů měr
prohlá šení,</w>
politick y</w>
penal ty</w>
d rob
c tions,</w>
Jed no
že la</w>
zbran í</w>
vý slov
uveden é</w>
ty pi
stá r
sna žíme</w>
pod půr
ová .</w>
nov ě</w>
Re h
úspě chu</w>
vio lation</w>
st rop
spraved li
re move</w>
předlo ží</w>
muž i</w>
form ě</w>
emis sion</w>
consum ers,</w>
State ,</w>
Ga za</w>
vy rov
ta j
stabili tě</w>
quali ty.</w>
poukáz at</w>
pl y.</w>
lob by
každ ou</w>
hod not</w>
ha s,</w>
ekologi cké</w>
du ch
ari é
ali se</w>
Če ské</w>
zasedá ní:</w>
ved ly</w>
stran y,</w>
rozvoj ,</w>
přijat ých</w>
plat by</w>
leto š
koneč ně,</w>
i o
da te,</w>
cho sen</w>
buil t</w>
Z de</w>
Evrop u.</w>
žit ,</w>
za stoupen
tr end</w>
pri or</w>
incenti ves</w>
harm ful</w>
es ;</w>
a ční</w>
R ak
Portu gal</w>
B en
č nou</w>
zau j
ra ble</w>
pře kro
pla ys</w>
odpoví dá</w>
n ou.</w>
in spi
constitu te</w>
ali sti
Ju st</w>
3 5</w>
ček ávání</w>
úpl né</w>
zem ím,</w>
společ ností,</w>
prote st
pro násled
p h
milion u</w>
el se
disea se</w>
con fu
com men
H DP</w>
šť ast
zem ního</w>
th ers</w>
sjedno cen
ri es</w>
org an
lé mu</w>
komis e,</w>
kom bin
environment ally</w>
de tri
dan g
S měr
Ch an
trag édi
pres su
pa d</w>
life ,</w>
kra jin
inform ací,</w>
en d.</w>
ct ure</w>
cle an</w>
c ú
abstain ed</w>
Subje ct:</w>
Ombud sman</w>
the re,</w>
sí tí</w>
rapporteur 's</w>
radi o
ne vertheless</w>
k al
fungu je</w>
com pul
com pon
car rying</w>
be g
Dire ctive,</w>
Democrats )</w>
toler ance</w>
t ovat</w>
settle ment</w>
s děli
roz sud
překáž ky</w>
pozor ně</w>
pou ště
neg ativ
experi enced</w>
equip ment</w>
e g
bre ak</w>
applic able</w>
Z na
K am
E ast
úda jů.</w>
ú četní</w>
za ci.</w>
wor st</w>
under line</w>
task s</w>
souhla si
ri ch</w>
produ cer
polo žit</w>
politick ými</w>
p s</w>
nost ran
mon opo
is m,</w>
fin e</w>
depen d</w>
bod y,</w>
ban ka</w>
2 .
ů ?</w>
ři di
Ře k
u vádí</w>
te prve</w>
posti h
poplat ní
obdob í,</w>
d va
chan ne
cestu jící
ati ves</w>
ústav ní</w>
vyvin out</w>
veřej ný</w>
upozor nil</w>
to -
themsel ves.</w>
spravedl nosti</w>
smlou vě</w>
růst u.</w>
myšlen ku</w>
di k
Rad u,</w>
O čekáv
Dů ležit
Danu be</w>
řen í,</w>
í ch.</w>
wit nes
vý stav
vy hrazen
v čas
skupin ě</w>
prv ky</w>
principle ,</w>
polo ž
na me
lid u</w>
fuel s</w>
dela y</w>
chá p
an á</w>
Součas ně</w>
částe čně</w>
wa it</w>
univers al</w>
ter ri
subsi dies</w>
sti on</w>
one -
ni m</w>
ne arly</w>
low -
less ons</w>
jur is
identi ty</w>
exten ded</w>
curren cy</w>
colla p
cen a</w>
attemp ts</w>
al co
Ob am
Ch cem
Bru se
vá m.</w>
ter mí
surveillan ce</w>
scho pen</w>
ně ní.</w>
communi c
care ful</w>
ali zace</w>
úmlu vy</w>
ut most</w>
určit ý</w>
uplat nění</w>
procu rement</w>
preven ci</w>
pokrač ování</w>
obav y,</w>
ne moc
in fe
fore st</w>
dělá me</w>
do ssi
clari fy</w>
cla im</w>
be aring</w>
Je jich</w>
získ ání</w>
zásad a</w>
zpráv ou</w>
tě mi,</w>
rozvoj ovou</w>
ně která</w>
ně jaký</w>
k ých</w>
iná m</w>
i ted</w>
govern ing</w>
doda vatel
cle ar.</w>
al é
3 0%</w>
živo ta
z pracov
tře ch</w>
sum m
ov z
leg ální</w>
interne t</w>
hlu b
den i
b ad
ar rest
F eder
Com muni
Arcti c</w>
5 /
201 2.</w>
šen é</w>
Ú četní</w>
zajist ili,</w>
vidi tel
va mi</w>
un less</w>
safe ty.</w>
rov no
reinfor ce</w>
pokro ku.</w>
organi zaci</w>
jící mu</w>
il l
hea vy</w>
estim ated</w>
elekt ř
at d.</w>
ar ms</w>
T ech
Al bani
úče ly</w>
tra de.</w>
texti le</w>
roz měr
případ ně</w>
programme s.</w>
ply n
o čekávání</w>
fi g
depen dence</w>
con serv
assu me</w>
Zadruh é</w>
Ne ighbour
Ma de
I ts</w>
Asht on,</w>
4 00</w>
čá stí</w>
zač ala</w>
z bav
transpar ency,</w>
scho ol
proce su,</w>
odpověd né</w>
mlad í</w>
minul ého</w>
materi al</w>
Tureck a</w>
P act</w>
In du
žád ám</w>
řešen ím</w>
vnitrostát ními</w>
tě m</w>
sai d.</w>
minist rů</w>
ma de.</w>
kul tu
dět í,</w>
ch ap
Pak istan</w>
Now ,</w>
Can cú
v ak
tru th</w>
sp read</w>
rozvoj .</w>
refle cted</w>
obě ti</w>
long -
kaž do
i cal</w>
fe ed</w>
coordin ate</w>
constitu tional</w>
ci ties</w>
T S</w>
Před sed
vě ce
transparent ní</w>
ta jem
sole ly</w>
region u,</w>
re forem</w>
op pose</w>
need ed.</w>
kompe ten
hla s</w>
great ly</w>
financ ování.</w>
dovo lit</w>
Rumun sko</w>
znepoko ji
velk ého</w>
obvyk le</w>
la y</w>
jist o
hod lá</w>
h le
doh le
digit al</w>
answ ers</w>
Un der</w>
Par lamen
G ol
Con sequ
Ač koli</w>
ře tí</w>
tre ati
tick ou</w>
spotřebitel ů,</w>
s '.</w>
re s.</w>
oun d
mo ratori
hru b
enterpris es,</w>
cház íme</w>
Ser vice</w>
Fol lowing</w>
vě ř
stu dies</w>
spotřebi tele.</w>
re ve
pomá hat</w>
podpor u
orgán ům</w>
la be
ex port
cíl ů,</w>
colle ction</w>
cel ní</w>
bene ficial</w>
ad v
Re gar
I rani
Ameri ca</w>
3 1</w>
pě st
negoti ated</w>
menš in</w>
genu ine
finan ced</w>
ec k</w>
citi zen</w>
vyčlen ě
ti ve.</w>
stí novým</w>
soud ního</w>
see ks</w>
pů l</w>
pro vin
obsa h</w>
mone y.</w>
ly mp
issu ed</w>
in sist</w>
azy lov
L o
whi le,</w>
střed omoř
sněmov na</w>
představ ovat</w>
prepar ation</w>
násled ky</w>
neleg ální</w>
n ing.</w>
man d
industri es</w>
be low</w>
ak cep
Rom ů</w>
trans actions</w>
ro und</w>
prezi den
nabíd nout</w>
klíč ovým</w>
jas nou</w>
hon our</w>
genuine ly</w>
ex pli
do statek</w>
demokratick ou</w>
budge ts</w>
US D</w>
Fron tex
B oth</w>
200 6.</w>
zvyš uje</w>
wil ling
ví ce,</w>
ta t,</w>
sí d
quota s</w>
pří stav
pu ,</w>
pat r
our ,</w>
oc it
man ner.</w>
hr d
finan čními</w>
dese ti</w>
contribu ting</w>
O lymp
Dire ctive.</w>
čen ím</w>
účin ný</w>
za stán
t ů,</w>
sank ce</w>
představitel é</w>
per pe
os lab
m ?</w>
ck s</w>
S &
Roz poč
Qu e
vě c
vývo ji</w>
vzni ku</w>
tomorrow ,</w>
tiv ně</w>
sup posed</w>
služ by,</w>
si ze</w>
show ing</w>
pracovní ků,</w>
poin ts.</w>
nezávis losti</w>
ist ic</w>
Head s</w>
Group ,</w>
Dec em
žen y.</w>
zeměděl ství.</w>
zapo mí
safe ty,</w>
pur cha
průmysl ových</w>
ne spl
her it
for mul
ent y</w>
důraz ně</w>
Zimbab we</w>
Fun d,</w>
í rán
é to</w>
zlep šování</w>
zen y</w>
tob ac
though ,</w>
speak er</w>
sp here</w>
ru kou</w>
re place</w>
přís nější</w>
potravin ář
podí let</w>
parlament ,</w>
náklad ní</w>
ne od
natur ally</w>
li e</w>
jí me</w>
jist ot
en de
behavi our</w>
NG O
á m.</w>
vz po
under stood</w>
sovereign ty</w>
solidar it
slo ž
s rozumi
přizpůsob it</w>
pack age.</w>
nej en
naje vo,</w>
mi x
lé ta</w>
kritéri í</w>
ke pt</w>
hovo řili</w>
dušev ního</w>
dovo zu</w>
cla use</w>
T w
G DP</w>
Fran ce,</w>
Consu mer</w>
Ch á
1 %</w>
zen a</w>
výmě ny</w>
součas ného</w>
rozmanit osti</w>
roz ví
regula te</w>
practi ce.</w>
post -
na pě
kriti z
go sla
cel er
ce a
Yu gosla
Verts/AL E.</w>
yester day</w>
vypořád at</w>
v acc
sig nat
secon dly,</w>
possib ly</w>
naslou ch
ho t
histori c</w>
děl á</w>
bro a
W est</w>
Ven ezu
Th en</w>
říd í</w>
zmí n
tá me</w>
tr zích</w>
regar dless</w>
mě nové</w>
meth od
len ni
dodáv ky</w>
compani es.</w>
vše ho</w>
vý ze
sensi ble</w>
rop er
rest ore</w>
pře konat</w>
považ ujeme</w>
kon solid
form al</w>
competi tion.</w>
ří ka
vít at</w>
před cházení</w>
new s</w>
n ers</w>
di l</w>
cest y</w>
Fish eries</w>
Evrop ané</w>
žen ým</w>
ur o</w>
tax ation</w>
speech es</w>
some what</w>
rybář ské</w>
ra el
před kládá</w>
o zbrojen
iz rael
ei ght</w>
B la
čin nosti.</w>
za stáv
w ent</w>
valu es.</w>
sa my</w>
rozsáh lé</w>
rele van
rela tively</w>
proces ses</w>
politi cally</w>
gene ticky</w>
dobr é,</w>
ch eck</w>
Ně kteří</w>
Kan ad
vý hra
vysvět li
slo žení</w>
průmyslu .</w>
pre di
prak ticky</w>
potřeb ě</w>
pack age,</w>
opport un
opak ovaně</w>
navý šení</w>
nadcháze jících</w>
mar ked</w>
lea ving</w>
le ta
impres sion</w>
identi fied</w>
i e</w>
humanit ár
he u
dicta tor
concent rate</w>
allo cation</w>
ter ms,</w>
sto ra
r y.</w>
proce ed</w>
pomá há</w>
osvěd čených</w>
le vi
le jší</w>
k le
jed nostran
investig ation</w>
highligh ts</w>
fi es</w>
P )</w>
Con serv
ú č
rozhod ovat</w>
progres s.</w>
lik vid
lar ity</w>
kultur y</w>
cí le.</w>
P N
ti se</w>
terroris m.</w>
podni ká
on ia</w>
modi fik
l ím</w>
ex ter
cy c
Po land,</w>
Ameri ca
( M
způsob y</w>
způsob il
zaměst náv
připrav it</w>
před nes
part -
na kládání</w>
m láde
len g
důvod ů,</w>
doprav ních</w>
bureaucra tic</w>
Ver heu
PSE .</w>
Neighbour hood</w>
Bosni a</w>
za řa
wi desp
většin ě</w>
většin y</w>
vzta h</w>
pokro ku,</w>
pla cing</w>
nej hor
im port</w>
dostup ných</w>
da ň</w>
bez prostřed
b ere</w>
Afri ce</w>
1 0%</w>
za vádí</w>
willing ness</w>
vlá du</w>
ul ture</w>
standar dy</w>
politi k,</w>
offer ing</w>
j ád
důležit á.</w>
constan t</w>
achiev ement</w>
ac celer
P ,</w>
Kod ani</w>
E C</w>
život ních</w>
řízen í.</w>
úlo hy</w>
vstoup í</w>
svr ch
st one</w>
situ ací</w>
rost ou
reque sts</w>
pro dáv
po rovnání</w>
kov á</w>
den ,</w>
demokratů )</w>
da tes</w>
a ted.</w>
2 8</w>
umož ň
uje te</w>
stabil ní</w>
s m</w>
ra jí</w>
pří pra
oh le
nejdůležitěj ších</w>
mo ji</w>
manufacture rs</w>
jak mile</w>
g ru
form ou</w>
cost s.</w>
c ovat</w>
Vět šin
Le h
Bus iness</w>
ž al
z ent
tion s:</w>
sta čí</w>
příjm ů</w>
práv y</w>
naš emu</w>
liberali zace</w>
histori cal</w>
h ování</w>
frame work.</w>
energeti ky</w>
de stin
Franci e</w>
1 2.</w>
zdravot ním</w>
vnitř ních</w>
stej ná</w>
si v
s ory</w>
p in
negoti ation</w>
ne jsme</w>
fir stly</w>
es ?</w>
e ur</w>
ch ea
ch ce
af ra
abili ties</w>
US A,</w>
Le gal</w>
Ar e</w>
ře m</w>
zeměděl skou</w>
uveden ých</w>
po tla
ovz du
obnov u</w>
nost ech</w>
nebezpeč í</w>
jist é</w>
in y,</w>
cel kem</w>
cal cu
ak ti
Za prvé,</w>
Mon ten
w ine</w>
vý lu
vý car
vyvin u
vozi del</w>
vliv u</w>
sm alle
run ning</w>
působ í</w>
pro secu
p ed
odpad u</w>
na zý
koneč né</w>
exten ding</w>
consid ers</w>
agreem ents,</w>
ad emi
Střed o
Považ uji</w>
Mů že</w>
závis lost</w>
zvá žit</w>
zkušen ostí</w>
země pis
uni form</w>
signific ance</w>
ow ner
koneč ném</w>
fra u
di kt
ba ven
activi ties.</w>
PPE- DE.</w>
Jo int</w>
, 5</w>
svě ta,</w>
potravin y</w>
clo sure</w>
alco ho
Vý chod
Ir sko</w>
Afghan istan</w>
ř ilo</w>
zeměděl ská</w>
za stoupení</w>
vyvíje t</w>
ver i
tex ts</w>
společ ným</w>
ro om</w>
restruct uring</w>
led ne</w>
konkrét ním</w>
cestov ního</w>
c oup
Pla n</w>
Kore a</w>
EC R</w>
účin nou</w>
ú ni
záležito sti.</w>
vy řešení</w>
transi tional</w>
tab le,</w>
služ bách</w>
skupin ,</w>
rozhod la</w>
pok les
par lamen
ne vlád
funda ment
f as
extré m
er a</w>
elec tions.</w>
(G A)</w>
žen í,</w>
č il</w>
uznáv ání</w>
st í.</w>
sezna mu</w>
rozpoč tu.</w>
proje cts.</w>
postav it</w>
possibili ties</w>
pie ce</w>
od lo
kte ch</w>
fun ction</w>
dosáh la</w>
dee p</w>
cu ts</w>
O prav
F ,</w>
E mployment</w>
Belgi an</w>
výrob ci</w>
vysla t</w>
předsed ou</w>
em i.</w>
azy l</w>
T u
T om
Sloven ian</w>
Portu g
GUE/NG L</w>
C er
ú ro
zmi ň
vů le</w>
výmě nu</w>
využí vají</w>
rozvo je.</w>
res erv
odpověď .</w>
nabí ze
k ování</w>
flo or</w>
di .</w>
d ve
an ou</w>
Com m
Co he
úst nímu</w>
zad rž
vě ři
syner gi
silá ch,</w>
pro of</w>
mys let</w>
mobili sation</w>
lea der</w>
klá dají</w>
anni vers
Consequ ently,</w>
víz ového</w>
tre st</w>
state .</w>
soukro mého</w>
min d,</w>
mi c</w>
m oun
conne cted</w>
ac tions.</w>
zákon a</w>
ví c,</w>
succe eded</w>
stead ,</w>
pa st.</w>
ne mo
navrh nout</w>
ly -
lon i
descri bed</w>
associ ation</w>
S ovi
Rak ou
Ob čan
C limate</w>
- .</w>
zpravoda je</w>
učin ila</w>
strategi e.</w>
specifi cké</w>
průmyslu ,</w>
proced ure,</w>
pra cí</w>
polov ině</w>
police jní</w>
nepřijatel né,</w>
monito rování</w>
mo ři</w>
minist ers</w>
gres sive</w>
crea tes</w>
3 %</w>
ře č
zau jmout</w>
z odpovědnost</w>
techni ckých</w>
ro l
hope ,</w>
h léd
fik aci</w>
en i</w>
ca using</w>
German y,</w>
člen em</w>
vo lit</w>
thin k,</w>
rá di</w>
redun dan
při chází</w>
pa st,</w>
odpovědě t</w>
essenti ally</w>
diskus í</w>
da te.</w>
conclu sion,</w>
compli cated</w>
Směr nice</w>
P odpo
Afghan ist
zásad ně</w>
tick ého</w>
sig ning</w>
negoti ate</w>
metod y</w>
fu l,</w>
civili an</w>
bo ar
b ám</w>
an ts</w>
adv ance</w>
Pod ob
Cha m
7 5</w>
peri od.</w>
man dát</w>
maj or
In nov
Gu ine
Ara b</w>
ž el
á na</w>
zdro je,</w>
tý ká
s hap
pří pust
produ ction.</w>
místa ,</w>
mí r</w>
komis i</w>
de centrali
ca st</w>
c ard</w>
Slov in
200 3</w>
zajist í,</w>
tri alo
rámcov é</w>
rozhod li</w>
oživ ení</w>
ob jem
lete ckých</w>
lenni um</w>
l ové</w>
f our
don e,</w>
constitu tes</w>
bas is,</w>
arrang ements</w>
Rozpoč tov
King dom</w>
úlo ha</w>
výsled ku</w>
vylou čení</w>
před nost</w>
prostřed ky.</w>
ply nov
minu tes</w>
me at</w>
matter s.</w>
logi sti
lid mi,</w>
know s</w>
cu k
an o,</w>
Skuteč nost,</w>
Moldov a</w>
H ome</w>
ti g
součas ný</w>
složit é</w>
propos als,</w>
posled ním</w>
návrh y.</w>
moder ní</w>
la u
kompli k
kla d</w>
jako ž</w>
financ ování,</w>
exist s</w>
en tered</w>
approxim ately</w>
Wh ere</w>
Před mě
zaměřen ých</w>
wor se</w>
uh lič
uhlič it
tur ned</w>
precis e</w>
od hal
n omin
mand atory</w>
in ou</w>
harmon ised</w>
dopra vě</w>
den ce.</w>
d ing,</w>
build ings</w>
bu ď</w>
atten tion.</w>
Zna men
Africa .</w>
če .</w>
zvlá d
zapomín at</w>
vyšet řování</w>
te sts</w>
struktur y</w>
ro -
přirozen ě</w>
po vědomí</w>
lin ks</w>
inten sive</w>
initiati ve,</w>
farm ing</w>
energetick á</w>
an ý</w>
T ,</w>
Jed nou</w>
EG F</w>
Cohe sion</w>
ě ji</w>
tě ší</w>
su rely</w>
s cep
ru mun
pozi ce</w>
ovan ém</w>
neu stá
nejlep ším</w>
na prav
jaké ho
dis ab
chil d
Z ap
Evropsk ých</w>
účin ná</w>
výsled ky.</w>
s on
popula tion.</w>
op ar
oběť mi</w>
obec ného</w>
mo re
le ch</w>
. '</w>
ú řad</w>
ztrá ty</w>
zajist ili</w>
učin ili</w>
sti pu
propo jení</w>
podpo řil</w>
pl y,</w>
ote pl
obli ged</w>
g am
de liber
Zas ed
va st</w>
rozhod l</w>
res cu
propo jen
point ment</w>
physi cal</w>
ně mu</w>
ne musí</w>
na cion
ka zem</w>
in habit
im ported</w>
en ím</w>
alo .</w>
a red</w>
Isra eli</w>
whe re,</w>
vé st,</w>
tion ally</w>
succes s.</w>
so il</w>
roz poče
pollu tion</w>
pla ti
on y</w>
offici als</w>
mlé ka</w>
ka mi.</w>
ine quali
hear ing</w>
al leg
a in</w>
živo ta.</w>
te k.</w>
state s,</w>
správ ní</w>
respe ct.</w>
přeruš il
programme s,</w>
pri ces.</w>
použí vají</w>
pohla ví</w>
par ents</w>
pamě ti,</w>
le m,</w>
la p
integra tion.</w>
de te
biodi versity</w>
ar med</w>
an -
W IF
In formation</w>
š íme</w>
změ ny,</w>
welcom ed</w>
sk i</w>
refer ring</w>
ra do
problém ů.</w>
podrob ně</w>
obdob í.</w>
net work
mo re.</w>
kultur ního</w>
invol ved.</w>
determin e</w>
dee ply</w>
comm it</w>
P .</w>
Comm on</w>
Balk ans</w>
8 /
we ver</w>
u li
thir d-
spo lé
rod iny</w>
last ing</w>
každ á</w>
im per
ho spod
fig ure</w>
er y</w>
acces sible</w>
T re
PP E</w>
Bar cel
žen í.</w>
Řeck u</w>
áz d
za kot
ver si
succe ed</w>
smlu v</w>
pu sh</w>
pr ázd
podnik nout</w>
po ses</w>
obsa hu</w>
coun ter</w>
M y
vš im
tax es</w>
střed is
sociali stů</w>
sněmov ny</w>
ráme c,</w>
remain ing</w>
profe sion
pozměňov acího</w>
politi cs</w>
l ing,</w>
cíl ů.</w>
L ab
Irani an</w>
E uro</w>
E N
Braz il</w>
200 2</w>
á tor
á ní,</w>
z u
vy řešen
univer si
st ní</w>
předlo žili</w>
podmíne k,</w>
oper ace</w>
is on</w>
glob álního</w>
da ta,</w>
busines ses,</w>
budouc nost.</w>
belie ves</w>
Pak tu</w>
H ere</w>
Can ada</w>
we alth</w>
víz ové</w>
rozpoč tu,</w>
reiter ate</w>
přij at</w>
nezávis lé</w>
kom er
dan í</w>
bezpeč nost,</w>
Zased ání</w>
H I
Africa ,</w>
umož nila</w>
spo r</w>
sou d</w>
se ti
pokrač ovat.</w>
per cen
ovo .</w>
léči vých</w>
kla de</w>
Romani an</w>
věd omi
vol bách</w>
t ové</w>
sí m,</w>
subsidiar ity.</w>
pru d
proceed ings</w>
mar ine</w>
macro -
l ing.</w>
jedno m</w>
inten si
easi ly</w>
ear th
dis par
chyb í</w>
bude -li</w>
argu ments</w>
al ong
C ap
5 0%</w>
znal ost
you th</w>
vo c
tero rist
skupin ou</w>
přem ýš
počí ta
pil lar
oval a.</w>
objective s,</w>
nástro j
nezbyt ně</w>
medicin es</w>
koleg a</w>
jin á</w>
homo sexu
dlouhodob ého</w>
claim s</w>
Minist ers</w>
E ras
- related</w>
výz vy,</w>
učin il</w>
uplat nit</w>
s on</w>
refor mu</w>
pá chan
produ ction,</w>
pracovní ci</w>
pha se</w>
par tly</w>
ovan ými</w>
op s</w>
mo t
educ ational</w>
dě ti,</w>
comple x
challenge s.</w>
b ed
abili ty,</w>
K i
B i
1 5.</w>
téma tem</w>
regi ster</w>
rea m</w>
orgá ne
návr zích</w>
ex tra</w>
dě ,</w>
compati ble</w>
char ges</w>
T er
P at
vzá jem</w>
vyjád ření</w>
určit á</w>
určen é</w>
threat s</w>
rove ň
ochran ou</w>
k lu
in vi
Itáli i</w>
řá du
than king</w>
stra š
st ag
rapporteur s,</w>
dost ali</w>
can ,</w>
affair s</w>
adverti sing</w>
U r
S WIF
Nej prve</w>
řed itel
Írá nu</w>
zapomín at,</w>
we red</w>
ved l</w>
un necessary</w>
tragi c</w>
ter most</w>
přípa dech,</w>
předpokla du,</w>
pr in
pokro k,</w>
pod pis
po vod
po t
organi zace,</w>
neighbour hood</w>
na vzájem</w>
fair ly</w>
enterpris es.</w>
ekonomi ckou</w>
dě lit</w>
compul sory</w>
ap an</w>
S an
J apan</w>
I ni
E M
A ID
záležitost í,</w>
stanoven ých</w>
sh e
regar ded</w>
ná mit
lis abon
l om
ko sti</w>
inte roper
iniciati v</w>
hrani cích</w>
důvod u,</w>
du ties</w>
de set</w>
aktu ální</w>
R .</w>
D ut
st s,</w>
presid ency</w>
podpo rová
pacient ů</w>
p tá
ome tri
je tí</w>
in ev
harmoni zaci</w>
facili ties</w>
evropsk ému</w>
cre d
bel gi
b ř
a ci
Regar ding</w>
2 %</w>
za ží
výrob ků,</w>
vid ím</w>
re ti
preser ve</w>
plate b</w>
ně kterými</w>
nech at</w>
men .</w>
li tu
ju jí</w>
jas ná</w>
it s.</w>
encoura ged</w>
compani ed</w>
Ru ral</w>
E very</w>
DP H</w>
ž ilo</w>
západ ního</w>
won der
w age</w>
výro čí</w>
vý š</w>
vít á</w>
ví ce.</w>
under taken</w>
sí ť</w>
ro c
při blí
power ful</w>
podmín kách</w>
po mohou</w>
ová ny,</w>
oda ň
lin es,</w>
experienc ing</w>
dosáh neme</w>
deba ted</w>
ce gov
Zá pad
There fore</w>
Lid é</w>
úlo hu,</w>
zneči štění</w>
ze gov
vět šího</w>
t 's</w>
soci álně</w>
přije tím</w>
proje v</w>
prior ity,</w>
pre viously</w>
oxi du</w>
or an
o kra
nation als</w>
legislativ ních</w>
cris es</w>
W ill</w>
Her zegov
Her cegov
če k,</w>
ver sion</w>
vehi cle
urych len
střed u</w>
stát ě</w>
short -term</w>
ro ni
příčin ou</w>
předcho zího</w>
pře sa
pu ts</w>
pro mp
pr ise</w>
pozi ci</w>
poskyt la</w>
největ ších</w>
nane j
man žel
k ce</w>
ct ory</w>
con tain</w>
Na ším</w>
Isla mic</w>
Environ ment,</w>
závaz ků</w>
zau jí
work ers'</w>
wor rying</w>
th res
re action</w>
ou termost</w>
necess arily</w>
ma de,</w>
happen s</w>
frame work,</w>
dří ve.</w>
author isation</w>
ag ement</w>
4 0%</w>
zohled nit</w>
u lo
tan gible</w>
tal ked</w>
short com
prev ence</w>
partner ství,</w>
partner s.</w>
lin e.</w>
kultur u</w>
jak ou
ir ing</w>
intellig ent</w>
en s</w>
draf ting</w>
Skuteč ně</w>
P lně</w>
OSN ,</w>
I slan
á ž
znov u
z važ
výděleč ně</w>
vi ol
sport ov
soukrom ých</w>
question s.</w>
phenomen on</w>
op tions</w>
micro -
ji žní</w>
je opar
fem ale</w>
dispozi ci,</w>
de serve</w>
agricultu re,</w>
Zat ímco</w>
Copenha gen
Cha ir
třet í,</w>
ta tive</w>
strategi i,</w>
rov i</w>
ně hož</w>
naru š
francouz ské</w>
de als</w>
acci dents</w>
SZ P</w>
K om
Ital y,</w>
Fun ds</w>
zapo men
zabezpeč it</w>
t lu
stat ing</w>
sk o-
mezinárod ními</w>
ko ho</w>
found ations</w>
ff s</w>
ex p
en ci
el .</w>
dispu te</w>
dep loy
credi ble</w>
S .</w>
Mil lennium</w>
Finan ční</w>
Chin a.</w>
wel comes</w>
sup por
společen ství,</w>
sk lad
satis fied</w>
rozši ř
prison ers</w>
ousl y.</w>
mar ks</w>
feel ing</w>
emphas ised</w>
el der
dig nity</w>
circumstan ces,</w>
K ri
zahrani č
význa m,</w>
v é,</w>
přispí vají</w>
podpoř it.</w>
obje ktiv
ma y
in v
a ?</w>
Parliament ary</w>
Bal kan
zná mo,</w>
vývo z
respe cting</w>
přija to</w>
pu rely</w>
problémů m</w>
privi leg
dět í.</w>
diver zi
deser ves</w>
R E
Ev ropo
201 3,</w>
zásad ní,</w>
x en
wor thy</w>
transatlan tic</w>
při pust
předpo klá
pracu jících</w>
ová na,</w>
lob b
krát ké</w>
konzulta ce</w>
hroz í</w>
hone st</w>
contra cts</w>
anti ci
Pou ze</w>
N atur
Do es</w>
0 .
žádo stí</w>
with ,</w>
věz ň
tor s,</w>
specu la
partner ství.</w>
kontro lní</w>
it ?</w>
im posing</w>
hodno ty,</w>
elec toral</w>
cest a</w>
Vi et
As soci
zapo j
vo st</w>
týk at</w>
ol y
ob a</w>
o logy</w>
ne ú
liv u</w>
fi x
exclu sion</w>
č uje</w>
vá leč
vy stoupení</w>
va jí,</w>
unaccep table.</w>
uděl ování</w>
u žit
tho rough</w>
refle cts</w>
před kládá
posí lí</w>
obtain ed</w>
obnov it</w>
nanej výš</w>
initiati ve.</w>
harmoni zace</w>
dem .</w>
dale ka</w>
ar ab
V al
Sarko zy</w>
vz rost
voleb ním</w>
transplan ta
stock s</w>
s nes
podni kání</w>
obla st,</w>
neu tra
jmen ování</w>
exten sive</w>
důklad ně</w>
dub na</w>
dispos al</w>
annivers ary</w>
accoun t.</w>
Většin a</w>
Al bá
widesp read</w>
vyžad ovat</w>
vel y,</w>
spotřebi tele,</w>
spoleh liv
ro ku,</w>
prof its</w>
povz bud
pl ní</w>
nej vzdálen
nedostat ky</w>
na opak
mat ernity</w>
kam pa
fru it</w>
diskutu jeme</w>
cu tting</w>
competi tion,</w>
C au
zajišť uje</w>
vytvo ří</w>
stej ným</w>
reál né</w>
pří stupo
let í,</w>
js me,</w>
hy gi
hra jí</w>
d or
d '
agent ur</w>
C as
še jí</w>
á n</w>
zkla má
zat ím
wa i
ver y
transpo si
tr vá</w>
sna hu</w>
rámcov ého</w>
re ported</w>
přen es
před pis</w>
prv kem</w>
potě šením</w>
poblahopřá l</w>
pat ent
ov ému</w>
ohrož uje</w>
násil í,</w>
me ant</w>
m y.</w>
la ce</w>
ish ed</w>
is :</w>
er adi
doub ts</w>
altern ativní</w>
al l
Sovi et</w>
200 1</w>
won der</w>
vy chází</w>
tur ning</w>
ste ch.</w>
r é</w>
ova tel</w>
odstran ě
manag ing</w>
justi ce.</w>
j me,</w>
druh á</w>
doj em,</w>
coun t</w>
contro versi
chan g
c rop
appli cations</w>
satisfac tory</w>
re tain</w>
progra mu.</w>
poin ting</w>
po řadu</w>
ply nů</w>
pen ing</w>
ně kterým</w>
leto s</w>
ign ore</w>
ig nor
ende av
economi cally</w>
cháze lo</w>
O sob
Fre ed
Chorvat sko</w>
C ri
200 5,</w>
ří ká</w>
zúčast ně
revis ed</w>
přist upo
ne změ
ne stač
na mi</w>
mož nost,</w>
kompromis u</w>
colleagu es,</w>
bo rem</w>
affor d</w>
W a
Nor thern</w>
Ha ving</w>
E very
Con ven
čtvr tek</w>
umož ňují</w>
st ad
s dělen
re lo
přijat é</w>
použí van
mnoho stran
kontro l</w>
jaký ch
hol ds</w>
celkov ého</w>
al a.</w>
ak té
Mer ke
Je likož</w>
Jak é</w>
Be cause</w>
veřej nost</w>
uved la</w>
tře s
terri ble</w>
směrni ce.</w>
sil ně</w>
sen ding</w>
příno s</w>
předpis y.</w>
declar ations</w>
decisi on.</w>
coup le</w>
a ž
T r
2 5
způsob ené</w>
zmí nila</w>
we st</w>
výrob ce</w>
vzdělává ní.</w>
valu es,</w>
sociál ními</w>
rez olu
předsed u</w>
purpo ses</w>
prů zku
organ ise</w>
onethe less,</w>
of ,</w>
občan ům,</w>
ně jakou</w>
ný ch,</w>
migran ts</w>
los ses</w>
list ened</w>
hospodář ským</w>
flexi bil
expen se</w>
ener gy
Z e</w>
S cot
Atlan tic</w>
Ashton ová,</w>
zásad ou</w>
zakot ven
tion ary</w>
teroris mu.</w>
sitt ing:</w>
re fore
poz ad
použí vá</w>
ostat ním</w>
nes ou</w>
nej de</w>
focu sing</w>
Ná š</w>
B ez
čist ě</w>
vě nuje</w>
výzku mu,</w>
ví těz
ti gh
sou hr
revi ze</w>
re di
při dělen
pl é
pan uje</w>
nebezpeč ných</w>
m zd
kla si
jin ou</w>
integ r
im balan
gener ate</w>
f ú
dě .</w>
defen ding</w>
ct or</w>
ca tegori
ash ing
ak čního</w>
afra id</w>
O ver</w>
Izra el</w>
živo ty</w>
zneuží vá
zat ý
veřej ným</w>
ur it
state s.</w>
republi ka</w>
reach es</w>
pro zatím
pre va
požad ovat</w>
li ve
la tes</w>
iniciati vy,</w>
informa čních</w>
fiel ds</w>
elec tions,</w>
analý zu</w>
Peop le</w>
Blízk ém</w>
červ nu</w>
zásad ním</w>
vo lá
this :</w>
rec all</w>
pracovní ků.</w>
osob .</w>
h .</w>
effe ctive.</w>
cti v
broa der</w>
V eli
žen ám</w>
č ně,</w>
únor a</w>
výrob ní</w>
vy zná
stanov í,</w>
služ bá
skuteč ností,</w>
rov ané</w>
praved l
občan skou</w>
ná ku
n at</w>
missi ons</w>
mal ý</w>
js em,</w>
he re
bri d
V ed
Romani a,</w>
G ra
úsil í.</w>
změ nám</w>
zdůrazň uje,</w>
výro ční</w>
uti li
svob od</w>
sh ar
s pr
practi ce,</w>
po stupem</w>
plenár ním</w>
nařízen í.</w>
nale zení</w>
le vice</w>
it s,</w>
fak t,</w>
childr en's</w>
ar bit
U snes
Tě ší</w>
Předmě t:</w>
ved le</w>
us ers</w>
reali ty.</w>
prospě š
particul ar.</w>
od raz
mož ných</w>
kapit álu</w>
hla d
gener ace</w>
e ;</w>
co al</w>
S h
Ombud sman
za mez
uzav řít</w>
t on</w>
stabili zaci</w>
přijí má
oprávně ně</w>
ob zvlášť</w>
langu ages</w>
kontro le</w>
gener al,</w>
deter io
cí mi</w>
bezpeč nost.</w>
be came</w>
Středomo ří</w>
Ru ska</w>
z daleka</w>
uděla t,</w>
tre stá
rov á</w>
pil ot
peri od,</w>
obje m</w>
no tably</w>
ky ně,</w>
jader nou</w>
fir e</w>
dé l
de pri
contra ct</w>
bi ometri
Ye ar</w>
D an
tě ší,</w>
te dy,</w>
sur roun
respe cted</w>
regret table</w>
reali zovat</w>
proje ct,</w>
potě š
od kaz
nevyhnu tel
ne byli</w>
lo ans</w>
help s</w>
govern ance,</w>
fis kální</w>
dvoustran ných</w>
disku tov
de tention</w>
cov ers</w>
conclu de,</w>
The ir</w>
'no '</w>
zdůraz nila</w>
z přístup
vět ším</w>
výslov ně</w>
st ali</w>
sim ple
produk ci</w>
posu zování</w>
perfe ctly</w>
odbor ní
návr hu.</w>
na pří
legi ti
hlubo ce</w>
h le</w>
fac ts</w>
educ ation.</w>
competen ces</w>
ci :</w>
Wel l,</w>
Constitu tional</w>
š ní</w>
či ly</w>
z y,</w>
tw o-
tu ber
rela tions.</w>
protekcion is
nástro jů,</w>
lin es.</w>
l te,</w>
jednodu š
in stal
in no
da ta
along side</w>
ag o
špat né</w>
vá zá
time ly</w>
rozvo je,</w>
ro bu
přiměřen é</w>
pře vzít</w>
potřeb ná</w>
minu te</w>
maďar ské</w>
jour ne
islá m
inte res
form ální</w>
důsled kem</w>
bo t
ari b
acci dent</w>
Ta j
širo kou</w>
Čí ně</w>
ste .</w>
standar dis
se k
s bě
re act</w>
příspěv ky</w>
prospe cts</w>
požád al</w>
potřebu jeme,</w>
ow n-
obyva tele</w>
nepo ko
kom ent
hlav ními</w>
dynami c</w>
adop ted,</w>
Otáz ka</w>
Š výcar
z prostřed
weapon s</w>
vy mý
se b
restri cted</w>
re ply</w>
proportion ate</w>
pracu jící</w>
po v
play ers</w>
nes chop
kvó t</w>
klad u</w>
hou sing</w>
druh ém</w>
dosáh nout.</w>
der s,</w>
dal šímu</w>
contr ary</w>
after no
ab an
Znamen á</w>
Ru sku</w>
L oty
200 4,</w>
vykon ávat</w>
vyh ov
vy sl
vlád ou</w>
spad á</w>
sdí lení</w>
s mar
pat ri
místa .</w>
mom ent.</w>
lod ě
h nutí</w>
dů m</w>
blí zké</w>
ambi tion</w>
ak ademi
Viet na
Venezu e
T ri
Rad ě,</w>
P lá
čin it</w>
wh y,</w>
vzá c
vy budovat</w>
společ ností.</w>
sin ce
rozum né</w>
rapid ly</w>
op í
mo tions</w>
lá tky</w>
ent ní</w>
disea ses</w>
da ta.</w>
check s</w>
cent res</w>
border s,</w>
S al
GUE/NG L
ň á
způsob uje</w>
všeobec né</w>
věn ována</w>
sa ving</w>
původ ně</w>
prav oda
need s.</w>
ne jsem</w>
ma p</w>
l ních</w>
kapit á
fisher men</w>
dire ctive
ca ta
aban don
N ová</w>
C F
8 0%</w>
še tr
úspěš né</w>
úlo hu.</w>
znač ný</w>
za ční</w>
with .</w>
vš u
význam ných</w>
vyjád řili</w>
vi able</w>
stakehol ders</w>
signá l,</w>
rozši řování</w>
remar ks</w>
promis ed</w>
otáz ku.</w>
mod el,</w>
leti št
la s</w>
k de
jin ém</w>
innov ation.</w>
globali zace</w>
earth qu
důvod y</w>
důležit á,</w>
domní vá,</w>
clas si
archi te
Z mě
S P</w>
Nov em
Loty š
Christi ans</w>
škod y</w>
sugge sted</w>
s low
rů st,</w>
rozhod nout</w>
requ is
občan ských</w>
bezpeč né</w>
Z pravoda
Euro -
Cau casu
7 /
zástup ců</w>
začí ná</w>
za interes
w ,</w>
vidí me,</w>
te v
streng th</w>
příležito sti,</w>
otevřen é</w>
lo sing</w>
l s,</w>
kole ktiv
kla dem</w>
U z
P lease</w>
Dut ch</w>
zí ch.</w>
zat í
všech ny,</w>
val ent</w>
u ji
téma ,</w>
tvá ř</w>
t ální</w>
su m</w>
roz dělen
prodlou žení</w>
perpe tra
nezbyt nou</w>
navrh ované</w>
inter institutional</w>
indi cate</w>
facilita ting</w>
extra ordinary</w>
cost s,</w>
contin ent</w>
Fun d.</w>
2 9</w>
zí tře
zeměděl ců</w>
vstoup it</w>
undermin e</w>
recei ving</w>
our sel
op is
mob il
mani pu
fa mil
deta il</w>
control led</w>
amen d</w>
čin y</w>
zab í
vlád ě</w>
vid íme</w>
u ?</w>
tobac co</w>
svob o
plu s</w>
ling u
jedn at.</w>
inter nation
ho sp
ho li
d ant</w>
b ing</w>
atmo sfé
U ž</w>
Pod por
( Zasedání</w>
úda j
zajist ila</w>
where as</w>
vyjad řuje</w>
toto ž
terroris m,</w>
strugg le</w>
stra in
sch edu
s dru
problé mu,</w>
pri ces,</w>
lid ským</w>
ey e</w>
chrá ně
al y
část ky</w>
zí ch,</w>
způsob u</w>
zjist it,</w>
ved li</w>
v l
ul t</w>
th i
pravide lně</w>
hodno tá
by d
amen ded</w>
Sociali sts</w>
Democra tic</w>
ž ší</w>
záležito stech</w>
za mý
vě ro
vessel s</w>
stres sed</w>
speci es</w>
rybolov u,</w>
re n</w>
přítom nost</w>
přijat á</w>
požád at,</w>
own- initiative</w>
klá st</w>
integr ity</w>
g ap
Strasbour g</w>
Sa har
Mezinárod ního</w>
Fir st,</w>
Ap pro
A S
život ním</w>
čty ř</w>
úprav y</w>
zlep ší</w>
výrob ě</w>
vytvo řili</w>
ukáz ala,</w>
time s.</w>
report ing</w>
rej stří
pok rý
op ust
globali z
g ar</w>
fal ls</w>
emis emi</w>
dovo z
coast al</w>
čtě jší</w>
získ ali</w>
zalo žený</w>
zajišť ování</w>
z one</w>
voj á
takov ý
sum mar
přezkou mat</w>
proje cts,</w>
os pravedl
obvin ě
návrh .</w>
nedostateč né</w>
jeopar dis
funk ci</w>
effici ency,</w>
dopra va</w>
dem ,</w>
consist ency</w>
cep tion</w>
W ashing
T .</w>
A le
če t</w>
věde cké</w>
tro u
sle de
op ač
mo st,</w>
kontro la</w>
ist s</w>
invest ing</w>
indicat ors</w>
head ing</w>
d ings</w>
M ůj</w>
zákla dy</w>
u se,</w>
tu ňá
snad no</w>
s ligh
pou kazuje</w>
ov ali.</w>
op h
mandá tu</w>
let ter</w>
join ed</w>
expres sing</w>
exist ující</w>
epi demi
demokratick ý</w>
dal y</w>
conver gence</w>
ch in
bi later
ac companied</w>
Stockhol m</w>
Ú četního</w>
zad r
u míst
sí lu</w>
sli b
sank cí</w>
representa tion</w>
prak tické</w>
por no
podstat ně</w>
ol der</w>
odpověd nost.</w>
mor ální</w>
mo tor</w>
marke ting</w>
lin e,</w>
klíč ový</w>
dal o</w>
Wom en's</w>
ál ní.</w>
vehic le</w>
u dělen
tře tím</w>
transpar ency.</w>
subje ct.</w>
problé mu.</w>
o či
ní ch.</w>
nu ty</w>
loo ked</w>
kov ého</w>
kole ktivní</w>
ka m</w>
exist enci</w>
eco logical</w>
demokratick ého</w>
demokraci i,</w>
cata strop
bu y</w>
ane bo</w>
Liby a</w>
Izra e
Commission er.</w>
A SE
0 /
zji ště
vzdělá ní,</w>
ri go
popula tion,</w>
podob ně</w>
penal ties</w>
one 's</w>
nost ní</w>
nebezpeč né</w>
l are</w>
k ým</w>
jedin é</w>
d in
d ency</w>
comm od
Obam a</w>
D im
širo ké</w>
způsob en
we ak</w>
w ould,</w>
vy na
vra ž
vi ly</w>
při jít</w>
před čas
percen tage</w>
multi annual</w>
la bo
hrani ci</w>
flo od
fe wer</w>
comb ined</w>
An ge
2 50</w>
ů d
ď me</w>
zá min
war ning</w>
vla j
sym pa
srozumi tel
podmín ky.</w>
po tíž
po st</w>
občan ská</w>
nezávis lo
na váz
mů ž
kriz í,</w>
kin ds</w>
ji l</w>
ho wever
euro ,</w>
cel ních</w>
appropri ations</w>
ab sor
Tre ati
Servi ces</w>
Samo zřejmě,</w>
Kone čně</w>
ú čet
zač al</w>
with draw
vý nos
stran y.</w>
spo ust
sl í
resour ce</w>
ot ing</w>
g over
financ ovat</w>
et c.</w>
audi ov
0 ,
č ování</w>
á ní.</w>
zpravodaj ka.</w>
voc ational</w>
vis as</w>
usi luje</w>
star ší</w>
spe ct
rybolov u.</w>
ro le.</w>
přesvěd čit</w>
nost mi</w>
ne podařilo</w>
m l
ku :</w>
en cies</w>
dneš ního</w>
com e,</w>
chy bě
ar is
air lines</w>
Nabuc co</w>
Ky pr
4 5</w>
19 .</w>
17 .</w>
škod liv
č it.</w>
zaměstnan osti,</w>
where by</w>
věro hod
uni que</w>
u se.</w>
tor s.</w>
směrni c</w>
re fers</w>
o gra
nejrychle ji</w>
komis i,</w>
koli ,</w>
cre ative</w>
con fron
cestu jící</w>
busines ses.</w>
abili ty.</w>
Sch vá
Can ad
A gent
2007-201 3</w>
čís lo</w>
člově k</w>
úče l
zmír nění</w>
zjednodu šit</w>
zdro j</w>
v před</w>
sta ,</w>
společen ství.</w>
qu ota</w>
poslan ců,</w>
po ci
od dělen
o proti</w>
něj ší
name ly,</w>
kov ý</w>
k ého</w>
j ším</w>
interpre tation</w>
explan ations</w>
ex ports</w>
důvěryhod nost</w>
dost alo</w>
deseti letí</w>
Turke y,</w>
M ost</w>
Domní váme</w>
Affair s.</w>
znepoko jení</w>
z ím</w>
world wide</w>
vy sky
vy rob
un preced
soli d</w>
soci o-
sk ep
sekt or</w>
plat nosti</w>
nábožen ské</w>
mnoho krát</w>
lá me</w>
ká že</w>
interest .</w>
euro .</w>
do kaz
diskut ovali</w>
ab out.</w>
Dě ku
1 50</w>
/E C</w>
š ke
záj mem</w>
začlen it</w>
vy rovn
u spě
sla v
přij me</w>
psy cho
problemati ce</w>
poku s
ovan ému</w>
lo ď
l ovat</w>
hygi en
funk ce</w>
dě jin
dis appe
deli ver
ap pla
So lan
Rad a,</w>
Kod an
A ž</w>
žen ami</w>
tř emi</w>
smlu v
příležitost ,</w>
prax e</w>
potřeb ám</w>
parti es.</w>
pa per</w>
ori ent
ob il
nástro j,</w>
medi um</w>
me tr
e b
demonstra tes</w>
ch am
ca re,</w>
ag es,</w>
Budge tary</w>
Agen da</w>
zpravoda ji,</w>
vyzý váme</w>
vyjád ř
schem es</w>
rozmě r</w>
religi on</w>
rati fied</w>
politováníhod né,</w>
op u
nost em</w>
konzerv ativ
hra č
agu e</w>
N o
N ig
1 3.</w>
vy pu
third- country</w>
stora ge</w>
proces sing</w>
plan ,</w>
gam b
g a</w>
emis sions,</w>
bir th</w>
ali zaci</w>
ab or
T ha
Mo roc
D ne</w>
3 0.</w>
zan ed
ter ms.</w>
suver en
smalle r</w>
prav du,</w>
mean ing</w>
le m.</w>
juris di
inform al</w>
dne s,</w>
disab led</w>
conta min
ar ising</w>
ad res
Spa in,</w>
řad ou</w>
úto ky</w>
violen ce.</w>
svo je</w>
repea tedly</w>
příprav u</w>
pravide l
pow er.</w>
plá nů</w>
něj šími</w>
ná me</w>
mož né.</w>
expan sion</w>
confi dent</w>
ar k
ag eing</w>
Albá ni
ti sk
služ ba</w>
recy c
poslou ch
p har
odsu z
mechanis mů</w>
legitim acy</w>
j dou</w>
finan ces</w>
dosáh nout,</w>
dneš ním</w>
d edi
competitivenes s.</w>
advanta ges</w>
a s.</w>
Prob lé
N U
Com munist</w>
ů ;</w>
vál ky</w>
využí vá</w>
th ly,</w>
spotře by</w>
reali zace</w>
přím ých</w>
při družení</w>
priori ties.</w>
od škod
ni li,</w>
lar ger</w>
dě ní</w>
code cision</w>
c lon
bri ef</w>
Hla vní</w>
španěl ské</w>
č ná</w>
vlád y.</w>
trval é</w>
správ ný</w>
sinc ere</w>
ru ch</w>
reform a</w>
per mit</w>
oby če
minist r</w>
lon i</w>
jed ine
go t
frequ ently</w>
dohod u,</w>
cem i.</w>
Tunis ia</w>
Strate gy.</w>
F our
Europo l</w>
14 .</w>
čin nost.</w>
výbor u.</w>
vysí lání</w>
vylou čen
týd ny</w>
t ů.</w>
resol ving</w>
reason s.</w>
re oty
příj my</w>
od por
liber ální</w>
ky :</w>
har d
govern ment,</w>
ed nes
dokáz ali</w>
do cház
complain ts</w>
Politi ka</w>
OSN .</w>
O ther
K av
I P
Co el
A k
čin nost,</w>
zeměděl cům</w>
tele fon
sub sid
rozvoj ovým</w>
reali ty,</w>
rail way</w>
přistěhoval ců</w>
pat ři
o svobo
náležit ě</w>
kapit o
její mu</w>
ha u
glob álním</w>
fi ed,</w>
dis cre
by lo,</w>
billi on.</w>
accoun ta
a side</w>
a part</w>
Mus li
E S</w>
Bal tského</w>
Afghánistá nu</w>
zaměstna vatel
zahrnu jí</w>
ye s,</w>
viol ent</w>
view .</w>
usnad nění</w>
stran ami</w>
st ou
st at</w>
op t-
nut a</w>
mé ně,</w>
kov ou</w>
importan ce.</w>
dec lare</w>
au tob
a pe
Komis í,</w>
(E T)</w>
žad atel
z im
tře tin
suspen ded</w>
správ nou</w>
s al</w>
recogn ises</w>
popu lar</w>
pil lar</w>
otáz ce,</w>
opatřen ích</w>
měst a</w>
mě nového</w>
mit ,</w>
m ým</w>
m bi
li ter
králov ství,</w>
kon cem</w>
indi cated</w>
g ress</w>
forwar d,</w>
fail ing</w>
ca re.</w>
GUE/NGL .</w>
ře těz
vyvol ává</w>
sport s</w>
rov ných</w>
re ce
pře hlí
pře chod</w>
prv ních</w>
nej as
ne t</w>
join tly</w>
jaké koliv</w>
i .
histori i</w>
govern ance.</w>
fri ends</w>
bankov ní</w>
au ster
ad ju
Ma urit
Innov ation</w>
vod u</w>
ter min
str ing
st age.</w>
radi cal</w>
překá žek</w>
organis ations,</w>
me s,</w>
m at,</w>
li la</w>
autor .</w>
aktiv ity</w>
S he</w>
Re port
OL VI
Au gu
zúčast něných</w>
zeměděl ce</w>
zaměřen á</w>
v an</w>
událo stí</w>
teroris mu,</w>
t ;</w>
substan ti
souhlas í</w>
self- employed</w>
před tím</w>
potravin ové</w>
posi luje</w>
org an</w>
nej nov
myšlen ky</w>
hospodář skému</w>
doku men
d itu
an o
ali ty,</w>
Y or
Rozhod nutí</w>
Evropan ů</w>
ško lá
červ ence</w>
under lying</w>
trest ního</w>
ste reoty
služ by.</w>
responsibili ty,</w>
prohi bi
procedure s.</w>
problemati ku</w>
pris on</w>
oly mp
nu tri
mone y,</w>
li t.</w>
in y.</w>
in ing</w>
form ing</w>
enab les</w>
discrimin ation.</w>
dire cted</w>
dik ta
decisi ons.</w>
cli ma
aboli tion</w>
Turk men
Ti me</w>
M at
Lab our</w>
Jin ak</w>
zúčast něné</w>
vě zně
vývo zu</w>
uzav ře
určen ých</w>
tro j
tel li
teh dy</w>
s ake</w>
s /
pře vz
pil ot</w>
nej zranitel
multi -
li ves.</w>
katastro fy</w>
fun ded</w>
fe jme,</w>
dramati c</w>
domní váme,</w>
blí z
achie ved.</w>
Pi e
Govern ment,</w>
D au
Associ ation</w>
č nímu</w>
z i,</w>
vy ty
vojen ských</w>
udržitel nost</w>
tre at</w>
safeguar ding</w>
s co
politi ce,</w>
po mal
ov y</w>
ná ch</w>
necess ity</w>
lu ji</w>
i te
francouz ského</w>
fic ation,</w>
collabo ration</w>
bod y.</w>
arm ád
S OLVI
Prob lém</w>
Ire land.</w>
Eras mus</w>
Assem bly</w>
Asht on</w>
' the</w>
živo t.</w>
ške rou</w>
z ran
vy spě
vo te:</w>
umož nilo</w>
sector s.</w>
reform ě</w>
pří stupem</w>
předlo žení</w>
po ž
kro ků</w>
je te</w>
ho tov
do l
den ce,</w>
c larity</w>
bureaucra cy</w>
bu je</w>
as ser
W ednes
6 5</w>
í ;</w>
zen o</w>
transposi tion</w>
t ři
správ ě</w>
republi ce</w>
připomen out</w>
prohlá šen
pro vádí</w>
po j
osob y,</w>
měří t
mi tig
li qui
konz u
jak ými</w>
ge ous</w>
ful ly,</w>
effecti vely.</w>
dá ní</w>
criteri a.</w>
Va še</w>
N onetheless,</w>
Liber ties,</w>
C oh
ASE A
zru šen
vytvo řila</w>
vo lání</w>
tradi ční</w>
to krát</w>
ti ly</w>
ti ch
s me
ra ted</w>
pres enting</w>
partner s,</w>
od ha
ní kům</w>
ji ly</w>
inteligent ní</w>
fre ely</w>
expen ditu
de sí
cem i,</w>
Osob ně</w>
zdůraz nila,</w>
y ar
uved la,</w>
suppli es</w>
suggesti ons</w>
stu dents</w>
radě ji</w>
progra mu,</w>
mus íte</w>
milli on.</w>
liberali zaci</w>
každo ročně</w>
endor sed</w>
en shr
decisi on,</w>
daňov ým</w>
ca mp
E du
2 5.</w>
čá stech</w>
zátě ž</w>
vo sti</w>
ve škerou</w>
tex tu,</w>
satisfac tion</w>
resear ch
over -
otevřen ě</w>
obyvatel é</w>
ku je</w>
komunika ční</w>
komis e.</w>
is m.</w>
inter im</w>
integra te</w>
ha m
for got
for ,</w>
fin ally,</w>
far ,</w>
ex cu
eur a</w>
difficul ty</w>
dea ths</w>
at ?</w>
Pod í
PN R</w>
živo či
y our
region y,</w>
podmíne k.</w>
oči vid
napří č</w>
na cházejí</w>
l í,</w>
justi ce,</w>
group .</w>
gradu ally</w>
event u
effe ctive,</w>
ed ge</w>
demokraci i.</w>
cover ing</w>
ac tions,</w>
: 0
we ight</w>
východ ě</w>
vzájem ného</w>
unpreced ented</w>
spo n
sna ha</w>
se g
schval ování</w>
ro- Wal
přís né</w>
pochop it,</w>
ohro žení</w>
občan ům.</w>
neighbour s</w>
mimořád né</w>
evalu ate</w>
cov é</w>
aspe ktů</w>
Po žad
Merco su
K ur
Ferre ro-Wal
účast nit</w>
zákon y</w>
zahr nout</w>
usnad nit</w>
sor ry</w>
solu tion,</w>
pro hlaš
plat né</w>
otev řít</w>
nepřijatel né.</w>
mu ch.</w>
ing u
food stu
dro p</w>
ct ors</w>
comple ted</w>
character isti
at ors</w>
Tech no
Swed en</w>
Strategi e</w>
Komis i.</w>
Ira q</w>
Gruzi e</w>
Atlan ti
ča se</w>
zdan ění</w>
zajiště na</w>
za kázá
uprchlí ků</w>
sector s,</w>
odva hu</w>
occur red</w>
nez leti
m nou</w>
kr ý
jmen ov
jedin á</w>
infring ement</w>
fur ther.</w>
do prová
dialogu e,</w>
ce lá
ací mi</w>
Su dan
Su d
A ct</w>
závaz né</w>
zdro j
zd voj
zahrani čí</w>
who le,</w>
výkon u</w>
vozi de
ti sku</w>
tak ová,</w>
sy n
strategi cký</w>
star é</w>
sta te,</w>
sk lá
si ght</w>
show ed</w>
sa d</w>
plea sure</w>
nut ná</w>
nes s,</w>
mo tor
loň ského</w>
kolegy ně</w>
informa ce.</w>
im i
il o.</w>
fi f
exclu sively</w>
exac er
dokon čení</w>
dep th</w>
chudob y.</w>
Turke y's</w>
Spe cial</w>
í d
vysvět len
vy slan
ved eme</w>
tě s
skupin .</w>
politi k.</w>
poku sit</w>
pokro k.</w>
pa in
nut ně</w>
ka men
is ed,</w>
institu cí,</w>
hy dro
druh ý</w>
c vi
c toral</w>
Schul z</w>
A ny</w>
zač ali</w>
ukon čit</w>
sub stance</w>
stimu late</w>
sta ro
specu lation</w>
přistěhova le
po mohla</w>
par alle
organis ations.</w>
ocho t
mnoh ých</w>
m ra
lo k
l íme</w>
implemen ted.</w>
i. e.</w>
hou se
er t</w>
contribu tes</w>
amend ments,</w>
ali ty.</w>
ad mit</w>
/E S</w>
(E G
th usi
smlou va,</w>
si de,</w>
místopředsed kyně</w>
kultur ních</w>
cí l,</w>
cri me.</w>
con sent</w>
compromis e.</w>
Tak ový</w>
H od
še ho</w>
tun ate</w>
svět ových</w>
stát .</w>
roo ts</w>
ra dy,</w>
případ u</w>
progres s,</w>
posti žených</w>
opti mis
ní zké</w>
menta tion</w>
instru ments,</w>
há jit</w>
for tunate</w>
dovo z</w>
dodateč né</w>
do ty
d ny</w>
F .</w>
Cent re</w>
řed i
týd nů</w>
tý dnech</w>
re lea
prů mě
pozoro vatel
otáz kám</w>
od dělení</w>
nezaměstnan ost</w>
na p
konstruk tiv
kon sensu
effici ency.</w>
con ces
as s
alcoho l</w>
Righ ts.</w>
Jed in
Doh a</w>
C 7-0
vytváře jí</w>
vy baven
violen ce,</w>
uskuteč ní</w>
smě rem,</w>
rizi k</w>
region ů,</w>
přispí vat</w>
předlo žený</w>
per su
ovan í</w>
men ted</w>
ká m.</w>
k ing,</w>
justi fy</w>
její mi</w>
infrastruct ure,</w>
fund ing.</w>
employ ers</w>
broad ca
air ports</w>
M ul
Ch rist
20 ,</w>
zjednodu š
vě nu
tu s</w>
tic les</w>
tari ff</w>
skuteč ným</w>
pro ces,</w>
pre feren
pow er,</w>
postup y,</w>
m ne,</w>
k as
judi ci
inci dent
f lu
do stane</w>
der s.</w>
der ,</w>
d ního</w>
con ve
brief ly</w>
Itáli e</w>
Douf áme,</w>
D el
D avi
D ar
D C
šet ření</w>
zů stane</w>
tur ing</w>
souhlas íme</w>
scho ols</w>
rozpra vy.</w>
rov ného</w>
před cházet</w>
per si
pat ent</w>
od váž
me s.</w>
life long</w>
j ste,</w>
inv ite</w>
illu stra
elektro nických</w>
beg an</w>
Y our</w>
Veli ce</w>
V lá
Tak ová</w>
Po sled
O be
Franci i</w>
Al muni
4 %</w>
zí tra
z voli
výz vou</w>
vi ously,</w>
under take</w>
ukáz at</w>
str y,</w>
správ a</w>
si an</w>
rozmanit ost</w>
rea ffir
poukáz al</w>
nadcháze jící</w>
jour nali
ir a</w>
fli gh
f res
f low</w>
draf ted</w>
doká že</w>
deta il
committe e,</w>
as pira
an other.</w>
Tw o</w>
T our
5 0
umož nil</w>
srov na
soci al,</w>
skuteč ného</w>
skuteč ná</w>
rozdíl ů</w>
redun dant</w>
překon ání</w>
projekt y,</w>
proje vy</w>
poky ny</w>
parti es,</w>
naru šení</w>
k l
importan tly,</w>
en ces,</w>
do hled
dialogu e.</w>
at or</w>
adap tation</w>
M it
Fu ku
zbo ží,</w>
ti va
system atic</w>
subsequ ent</w>
solu tions.</w>
sk and
s prav
read ing.</w>
pro cent
p id
ov lá
náv az
nale z
menšin y</w>
lár ní</w>
le f
fav our.</w>
farm ers,</w>
dvo jí</w>
dri ve</w>
dan ých</w>
centur y</w>
ca teg
bo le
UE N</w>
Som ali
6 00</w>
ú roveň
závaz ky,</w>
výrob a</w>
v ou,</w>
uplynu lých</w>
u krajin
transak cí</w>
tab áz
sta ff
since rely</w>
shod y</w>
s cre
ri sts</w>
ra zem</w>
přeru šen
open ness</w>
need ed,</w>
mor ning</w>
mace u
lid ského</w>
im prison
ext ent,</w>
ekologi ckých</w>
ec ,</w>
do š
defin ing</w>
adop ted.</w>
Ukrajin a</w>
M .</w>
Liber als</w>
F ar
A ni</w>
záležitost ,</w>
za řad
ví z</w>
usi lu
tu risti
technologi es.</w>
s áz
ro le,</w>
rati fikace</w>
pro ven</w>
politi ka,</w>
obsa hovat</w>
oblast í.</w>
nejen om</w>
n ine</w>
mob ile</w>
kom pen
cit li
ch -
S en
Pr vním</w>
Bu du</w>
ž dy
začle ňování</w>
za se</w>
užiteč né</w>
u sed.</w>
strategi ckého</w>
přen os
ne d.</w>
mí ru,</w>
lod í</w>
ing ?</w>
fe ktiv
enti ve</w>
dot čen
Sy stem</w>
En gli
DP .</w>
21 st</w>
Žád ám</w>
zalo žen</w>
vy pad
to le
technologi í,</w>
te ch,</w>
skupin y.</w>
sk rý
sac ri
res or
rating ových</w>
ratifik aci</w>
předsed ů</w>
prů hled
pracovní kům</w>
poji štění</w>
nej vyš
nej bliž
nahra dit</w>
interven e</w>
fiel d.</w>
elektrár ny</w>
dr in
dosa vad
do or</w>
con sci
T ex
R ed
C ur
B ý
če st
ál ,</w>
va tele</w>
udr žení</w>
u vá
repres enting</w>
rela tions,</w>
příprav ků</w>
při hléd
publi c.</w>
pou kaz
potěšen ,</w>
podí vat</w>
plat nost.</w>
ob áv
n one</w>
model u</w>
ma inten
jev o</w>
hazard ous</w>
har dly</w>
dr žet</w>
al l-
F rat
18 .</w>
žen ách</w>
whe re.</w>
vě c.</w>
u j
tra ck</w>
st age,</w>
skvě lou</w>
shor t,</w>
se -
rough ly</w>
require ments.</w>
ode hr
obsa h
konkuren ční</w>
expen sive</w>
děl ,</w>
da tabáz
clas s</w>
ag es.</w>
Hung ary,</w>
2 ,
čten í.</w>
v ar
uzn at,</w>
trag edy</w>
takov éto</w>
si .</w>
prote st</w>
prohlási l,</w>
pracu jeme</w>
pea ce,</w>
obyvatelst vo</w>
im pe
hrani ční</w>
enter ing</w>
eng aged</w>
ekonomi ckého</w>
cen né</w>
blaho přeji</w>
an ces</w>
Republi c,</w>
P ak</w>
- scale</w>
á t</w>
závě ru,</w>
záležitost í.</w>
vysok ého</w>
u ví
spolu rozhod
prosad it</w>
pok les</w>
parlia ment</w>
mus lim
mul tin
moratori um</w>
mod e
li d</w>
ir regu
in ju
gro ss</w>
fre ight</w>
for .</w>
budouc ím</w>
belie f</w>
ast rich
assistan ce.</w>
ari ous</w>
S tu
život ně</w>
ži ,</w>
á ním</w>
vysok ý</w>
vymá hání</w>
visi on,</w>
technologi í.</w>
spe ech,</w>
schop né</w>
přem ě
práv ům</w>
propu štění</w>
proced ural</w>
požád ala</w>
post po
pochy b</w>
ne kal
is ed.</w>
hodno tí
for mu</w>
energetick ého</w>
dá m</w>
cit livé</w>
Rad ě.</w>
C ot
1 6.</w>
žád at</w>
š anci</w>
tel é</w>
st va</w>
souhla sil</w>
matter s,</w>
live stock</w>
kriz í.</w>
kontrol ovat</w>
konstat ovat,</w>
ing u</w>
in side</w>
h in
em e.</w>
compe te</w>
bat tle</w>
activi ties,</w>
ac u
Vý borem</w>
P lan
In stead,</w>
' y
ň ujeme</w>
we a
vy plá
to w
statisti cal</w>
st é</w>
ris k.</w>
přij de</w>
pla vid
ova tele</w>
obě tem</w>
interest s,</w>
integra tion,</w>
institu ce,</w>
in va
emphas ises</w>
em ents.</w>
e t.</w>
dru g</w>
discrimin ation,</w>
consider ably</w>
celkov ý</w>
can cer</w>
bla h
ban ky,</w>
air cra
S na
B ali</w>
ži jících</w>
Š pid
zahá jila</w>
z ní:</w>
y n
vítá me</w>
vyplý vající</w>
u m.</w>
systé mem</w>
stávajíc ího</w>
přistěhovalect ví,</w>
propag an
projekt ů,</w>
mí rové</w>
digit ální</w>
cru ci
Slov ak</w>
P ap
Navr h
N .</w>
Al low</w>
Agent ur
řen y</w>
zaveden ím</w>
wat er
věde ckých</w>
ustanoven í,</w>
prozatím ní</w>
promis e</w>
po dotk
otev ře
násil í.</w>
need ,</w>
loo ks</w>
la t</w>
iz o
en thusi
dokument y</w>
de stabili
ct i</w>
coher ence</w>
bod ě</w>
Součas ná</w>
Mě l</w>
č ného</w>
závaz ku</w>
základ u</w>
vý hod</w>
veřej nou</w>
va šeho</w>
uskuteč nit</w>
stru čně</w>
sa y
ry b</w>
potře b</w>
pi ly</w>
pen sions</w>
p .
ovatel é</w>
ov acího</w>
nut nosti</w>
k les
impli cations</w>
ey es</w>
enlar g
dlou hé</w>
cre dit
contro l.</w>
constitu tion</w>
bu s</w>
b í</w>
asse s
Olymp ic</w>
N alé
- to-
(L V)</w>
že l,</w>
Čí ny</w>
zvlášt ním</w>
zdro je.</w>
výjim ky</w>
vhod ná</w>
sh oul
přijat y</w>
padě lan
náro dy</w>
neg le
ne vin
mili tar
man ,</w>
kra t
k odi
jak á
incenti ve</w>
cele bra
busines s.</w>
Sw it
Russi a's</w>
Con cer
Ar kti
A liance</w>
7 %</w>
.. .
život ě</w>
ž ím</w>
ú pra
vnitrostát ním</w>
vešker á</w>
tribu te</w>
ton nes</w>
souhr n
rela te</w>
regula ting</w>
reform ní</w>
promo ted</w>
partner ů</w>
li l</w>
k odaň
instru ments.</w>
inclu sive</w>
i v
dě ti.</w>
dvo j
dohod ou</w>
de rog
charakter isti
au dit</w>
Usnes ení</w>
Slovak ia</w>
Rumun sku</w>
Portug al,</w>
O EC
B ow
á no</w>
zů stávají</w>
zvýš ila</w>
zaměstnan osti.</w>
tvrd ě</w>
tion :</w>
sig n
sen se,</w>
repe ated</w>
omez uje</w>
odpověd nost,</w>
obe zře
myšlen ka</w>
mobili ty.</w>
lete ctví</w>
kro ky.</w>
kompromis ní</w>
inform ací.</w>
go od,</w>
go .</w>
dlouhodob ě</w>
dispar i
N u
6 %</w>
wee k.</w>
voleb ního</w>
tlu mo
stri ke</w>
se hr
sa zení</w>
s car
rá no</w>
ra ce</w>
procedure s,</w>
pro stitu
požadav ky,</w>
owner ship</w>
ov acím</w>
level s.</w>
ku pu
k oup
jednal o</w>
im age</w>
agricultu re.</w>
Swit zer
že jí</w>
ča se,</w>
vy cházet</w>
vaš ich</w>
recommen d</w>
probí h
pracov i
pozitiv ním</w>
po mě
objem u</w>
na pad
n is
livo st</w>
it ím</w>
gro w</w>
ensu res</w>
doporu čení,</w>
automobil ů</w>
advo cate</w>
Righ ts,</w>
Proto col</w>
Lat inské</w>
AK T</w>
zámě r</w>
zájm ům</w>
ve ter
ta mi</w>
ta jí</w>
společen stvím</w>
sk i,</w>
sha res</w>
rozhodnut ím</w>
rizi ko,</w>
quick ly.</w>
potenti ally</w>
par a
mlad ým</w>
join ing</w>
fal ling</w>
dis rup
dec rea
de vis
de -li</w>
controversi al</w>
competitivenes s,</w>
Sw obod
Li ke</w>
Lat vi
King dom
č ů</w>
účin ných</w>
zvlášt ních</w>
zach ov
vydáv ání</w>
veden ím</w>
udržitel nosti</w>
taxpay ers'</w>
sa mo</w>
re me</w>
ob y</w>
ob o
nov ému</w>
měsí ce</w>
mobili se</w>
medicin al</w>
manag ement,</w>
l í.</w>
dopl ňující</w>
asi st
air port</w>
accoun ting</w>
Sud an</w>
Srb sko</w>
O B
Dá n
za slu
year 's</w>
výsled ky,</w>
vy bav
uzn at</w>
subsidiar ity,</w>
rescu e</w>
recon ci
rati fy</w>
povin né</w>
poci ť
plan .</w>
pati ent</w>
partne rem</w>
obran né</w>
nepřijatel né</w>
maintain ed</w>
li f
komuni sti
di e</w>
destru ction</w>
consolid ation</w>
challenge s,</w>
c odi
b s</w>
ar rest</w>
an ého</w>
a jí.</w>
Mac ed
E co
Dne šní</w>
Dec lar
201 2,</w>
1 1
zvlášt ního</w>
zaměstnan ci</w>
výzkum ných</w>
vlá da
te -
t sman</w>
surpris ed</w>
secre t</w>
scen ari
ra d
pře ce</w>
prospe ct</w>
pri me</w>
posto j,</w>
pod kop
oph ob
ohro žen
náklad y,</w>
nad národní</w>
měsí c</w>
mí nění</w>
mp tion</w>
kan celá
c ope</w>
břez nu</w>
Ni kdo</w>
Na místo</w>
Indu stry,</w>
í cí</w>
vers ity.</w>
ukáz at,</w>
su spe
stran .</w>
sr p
sil ou</w>
revenu e</w>
regula tions.</w>
pro mě
omez ování</w>
náv ra
multi later
ke r</w>
jednotn ém</w>
imag ine</w>
foun ded</w>
deca des</w>
ce ti</w>
ac ted</w>
Ti bet
Maced onia</w>
Commission ers</w>
C e
Asi a</w>
zasedá ní.</w>
ul tur
train ing,</w>
star ších</w>
soukro mí</w>
sou ght</w>
okamži ku</w>
odsou zen
mobili ty,</w>
l oru
h ma
environment álních</w>
důvod ů.</w>
dohod ách</w>
concer n.</w>
Střed ní</w>
Obe c
ňov al</w>
čast ěji</w>
zodpově zení</w>
ze b</w>
vy prac
victi m</w>
tr en
su gar</w>
si tes</w>
s -
ru ling</w>
prof it</w>
prev entive</w>
pravide l,</w>
po chází</w>
odbor ného</w>
mention ed.</w>
infra struktu
imi gra
dis char
bě loru
atel y.</w>
ali zovat</w>
advan ced</w>
Ma y
Hla su
Gruzi i</w>
201 1
vod í
tu m
threat ened</w>
svobod ě</w>
saz by</w>
s mysl
respon se.</w>
regula čních</w>
presid ential</w>
pož ár
potenci álu</w>
politi ce.</w>
okamžit é</w>
národ ního</w>
ne d,</w>
mono poli
m z
li min
koordin ovat</w>
kontro ver
fic ation.</w>
fa st</w>
extre mist
ei ther.</w>
dead line</w>
cor porate</w>
cohe sion.</w>
budouc na</w>
Presid enc
Hla vním</w>
í mi,</w>
vý slede
ti n</w>
th ings.</w>
strategi ckých</w>
růz no
ro ste</w>
přesvěd či
promo tes</w>
poznám ky</w>
opatřen ím</w>
new ,</w>
inequali ties</w>
fo s
communit y.</w>
ck on
W at
R ap
Que stion</w>
Kosov o,</w>
Ham á
Gol d
získ ala</w>
zep tat,</w>
zad ávání</w>
výrob ků.</w>
vidě li</w>
vi de
sekt oru.</w>
regi mes</w>
projednáv ání</w>
pres cri
oxi de</w>
ni c,</w>
nebezpeč í,</w>
ne existují</w>
har m</w>
T ai
Rad ou,</w>
Monten eg
I S
Cri min
Bulhar sko</w>
3 .
19 6
zdravot nictví</w>
výrob ky,</w>
usu ally</w>
un certainty</w>
u bí
tvá ří</w>
stej ných</w>
přísluš níků</w>
přezkou mání</w>
předsed kyně</w>
pozná me
poku si
podvod ům</w>
podmín kou</w>
ová n,</w>
mace uti
m al</w>
liber álů</w>
li li</w>
konflik t</w>
kon ver
k lar
invest ors</w>
inov ativní</w>
h raz
equi valent</w>
dědi ctví</w>
ct ví.</w>
blo ck</w>
bet ter.</w>
ameri cké</w>
a y
Smlou va</w>
Pa ci
Evropo u</w>
Develop ment,</w>
Cot on
7 00</w>
špat ně</w>
who le
učin í</w>
tn ým</w>
stanovis ko,</w>
s and</w>
rozu mě
opozi ce</w>
ně ji.</w>
institu tion
in sufficient</w>
e ta
dela ys</w>
d ent,</w>
chod ní</w>
cat ch</w>
autob us
au d
Wh ite</w>
R ,</w>
Pákistá nu</w>
G B
Ab ove</w>
í me.</w>
z pracování</w>
vědom í,</w>
vá žené</w>
vozid la</w>
tn out</w>
this ?</w>
t ing,</w>
sní ží</w>
ra ises</w>
ra cion
příležitost í,</w>
představi tele</w>
předsedajíc í.</w>
po pis
on i</w>
odpověd í</w>
kategori e</w>
kapac ity</w>
hope s</w>
da ys,</w>
corre ctly</w>
ch rání</w>
Sep tem
Při po
Občan é</w>
Coh n-
úrov ní</w>
zalo žení</w>
zad lu
u jící,</w>
sta in</w>
roz dělování</w>
perspe ctive,</w>
ová n.</w>
op ra
ní ka</w>
monito rov
j ních</w>
interne tu.</w>
govern ment.</w>
geo grafi
funda menta
ensu red</w>
dop ust
doku ment,</w>
cultu re,</w>
cu je</w>
E EA
Demo kra
Cor bet
u žití</w>
stri ve</w>
si x
při pra
přerušil )</w>
pre requis
pe l</w>
ovatel ů</w>
náklad y.</w>
nej růz
naléha vé</w>
modern isation</w>
lí to,</w>
like ,</w>
l s.</w>
jmé nu</w>
fungu jící</w>
farm ers.</w>
dlouhodob ém</w>
dis pen
di stan
bod ů</w>
T an
O s
NGO s</w>
ř ád</w>
vš ich
ve ge
tic s</w>
stov ky</w>
sp ir
smr ti.</w>
sem in
pracov ali</w>
poslan ce,</w>
pokles u</w>
na jí</w>
manag ement.</w>
k at</w>
ju gosláv
jak ých</w>
inova ce,</w>
in stan
fon dů,</w>
elektrá ren</w>
ed s</w>
dosáh ly</w>
do sti</w>
dig nit
asse ts</w>
St an
R ob
OLA F</w>
Nem ysl
zvíř at,</w>
za chy
výrob ců</w>
tvor by</w>
travel ling</w>
su ch,</w>
součas ném</w>
skupin ami</w>
pří lo
plynov od
návrh ů.</w>
moderni zaci</w>
model .</w>
kampan ě</w>
economi es.</w>
du pli
defini ce</w>
conta cts</w>
cho ro
as sem
M M
Lond ý
Al so,</w>
A bych</w>
žád ou
š ly</w>
é n
vypracov ala</w>
vyplý vá,</w>
unemploy ment,</w>
unemploy ed</w>
tě mi</w>
technologi es,</w>
slov in
simpli fied</w>
re ta
quali fications</w>
příj mu</w>
předpokla dem</w>
pro sím,</w>
po van
otáz kou,</w>
olymp ij
horizon tal</w>
dri vers</w>
do stan
cí len
consequ ences.</w>
b a,</w>
automobil ový</w>
aspe kt</w>
ar ly,</w>
Zem ě
Sou thern</w>
K lí
Indi e</w>
In stead</w>
Bu t,</w>
2 5%</w>
z ací</w>
wa s,</w>
vyu žil</w>
urč it</w>
stá tem</w>
srov náv
sed mi</w>
ro li.</w>
původ u,</w>
pozor nosti</w>
pochyb nosti</w>
pl ném</w>
odliš né</w>
nej význam
nadě ji,</w>
koleg y,</w>
hod in</w>
found ation</w>
consequ ence</w>
chod u</w>
celkov ě</w>
Partn er
O chran
Běloru sku</w>
řen a</w>
ča s.</w>
ú zké</w>
změ ny.</w>
vy ho
vstoup ila</w>
uděl ali</w>
taxpay ers</w>
sol ving</w>
simpli fying</w>
restri ct</w>
remov ed</w>
přítom nosti</w>
předpo kládá
promis es</w>
poděk ování</w>
po žá
particip ating</w>
opini on.</w>
om lu
obchod ním</w>
o tive</w>
ni l.</w>
nes mysl
nejist o
nedáv ných</w>
ne l</w>
more over,</w>
monit or
kompromis ,</w>
it ou</w>
interpre ta
hovo řila</w>
hma ta
harmon ogra
fáz e</w>
druh ého</w>
demokratick á</w>
cí mu</w>
cal ly.</w>
Zvlá št
Y ou
S il
P rav
N ad
Mac edoni
Lu x
H on
če ká</w>
způsob y,</w>
znalo sti</w>
vztah ovat</w>
uvaž ovat</w>
schop ná</w>
rů st.</w>
ru chu</w>
ovo ce</w>
né ho,</w>
ne znamená,</w>
navští v
lia r</w>
komisař ce</w>
ge s,</w>
eurozó ny.</w>
disap pointed</w>
b reach</w>
adequ ately</w>
Německ o</w>
B or
zakáz ek</w>
wide ly</w>
tele vision</w>
tel ů</w>
ta n</w>
t íme</w>
s ',</w>
připo jit</w>
překva pen
představitel ů</w>
projev it</w>
pro li
priv acy</w>
presenta tion</w>
poz nat
postižen ím</w>
po rod
p y
očekáv áme</w>
organiz ací,</w>
o lo
ná sledek</w>
kampa ň</w>
im a</w>
govern ments,</w>
fa ith</w>
dět ské</w>
dis agree</w>
dire ction,</w>
contain ing</w>
ap pointment</w>
a qu
S tran
Rumun ska</w>
O ba
M ag
G au
čel íme</w>
účin ky</w>
wa ys,</w>
vykon áv
vola ti
systé m.</w>
růz ným</w>
refu sed</w>
odpoví dat</w>
odbor nou</w>
názor ů</w>
mo ře.</w>
kil led</w>
in a,</w>
ex posed</w>
důsled ně</w>
d :</w>
cu s
com mon
clo sing</w>
assess ments</w>
adver se</w>
a head
SWIF T</w>
Mc Cre
G ar
zámě rem</w>
za ost
z h
vers ity,</w>
ur gency</w>
tran sit</w>
string ent</w>
sig ns</w>
shromá ždě
resear ch.</w>
recogn ising</w>
předlo žených</w>
pro vě
pravid ly</w>
pos ite</w>
politi ci</w>
plá n,</w>
otáz kami</w>
oprav d
nedo šlo</w>
mezi vládní</w>
každoden ní</w>
fon dů.</w>
energeti ku</w>
dokon čen
dlouhodob ou</w>
dis man
de ch.</w>
basi cally</w>
Tureck u</w>
T a</w>
Sy ri
Schvá lení</w>
S ome
Pol sku</w>
Podob ně</w>
Netherlan ds</w>
Lux em
Gu in
D en
Concer ning</w>
úlo ze</w>
znal ostí</w>
zdravot ních</w>
začá tek</w>
vol ně</w>
uznáv á</w>
uděla t.</w>
trest ní</w>
souvis lo
socie ties</w>
resul t.</w>
před em</w>
pře krač
progra m,</w>
parlament ního</w>
obrov skou</w>
n t</w>
mo to
lid sk
legitim ní</w>
klimati cké</w>
kandidá t
je ví</w>
j ó
inform acím</w>
gradu al</w>
expli cit
consulta tions</w>
ch ůd
c ode</w>
bo l
agenci es,</w>
adap ted</w>
T é
P ot
In te
Do konce</w>
Crimin al</w>
5 5</w>
způsob u,</w>
zaměstnan ost,</w>
technologi e,</w>
stri c
spad ají</w>
refu se</w>
re tain
ra cis
r are</w>
přesvědčen í,</w>
preven ted</w>
lá nek</w>
institu cemi</w>
inev it
exper t</w>
docu ment,</w>
disadvanta ged</w>
dan á</w>
benefici aries</w>
aspe k
Z nov
Th rough</w>
Mi mo
Auth ority</w>
úto k</w>
úst ní</w>
vz bu
vlá du,</w>
urychlen ě</w>
shortcom ings</w>
ri d</w>
ra te,</w>
protoko lu</w>
politi cal,</w>
mys lem</w>
jedn ali</w>
j -
in s</w>
i or</w>
h ám</w>
fo re.</w>
essenti al.</w>
consist ently</w>
bank rup
ba .</w>
akti vi
ac tors</w>
R ü
Ned o
Lef t</w>
Ky o
Balk an</w>
Ale x
vá ri
tradi tion</w>
s/ European</w>
rozdíl né</w>
redu ctions</w>
přechod u</w>
pres ent.</w>
požad uje,</w>
popula tions</w>
pa ce</w>
něj šímu</w>
nepo chop
na mes</w>
mod ré</w>
land 's</w>
k ry
jakého koli</w>
inter institucionální</w>
i f,</w>
děla jí</w>
convin ce</w>
congratu lations</w>
bla me</w>
avoi ding</w>
altern ativ
CO 2.</w>
ý mi,</w>
ú střední</w>
z řízen
w in</w>
význam ná</w>
určit ým</w>
urč ení</w>
subje ct,</w>
ro v</w>
re pu
přísluš nými</w>
příkla d,</w>
od dí
minulo sti.</w>
l l</w>
kod ex
him self</w>
flow s</w>
feder ace</w>
doká žeme</w>
criteri a,</w>
condem ned</w>
be long</w>
ar ise</w>
analý zy</w>
agenci es.</w>
ac ím,</w>
Výsled kem</w>
V ol
M or
Druh ým</w>
Ci ti
Bla ho
200 5.</w>
' t</w>
živo ta,</w>
visi on.</w>
visi ble</w>
týka jícím</w>
to ys</w>
ti cal</w>
scan dal
sa telli
příčin y</w>
princi p</w>
preven tivní</w>
počá teč
považ ují</w>
porozu mění</w>
ne m,</w>
minul ých</w>
kon cent
immigra tion,</w>
for um</w>
evid ent</w>
de gra
ch tí
be fore,</w>
T y</w>
Sever ní</w>
O ce
Green s/European</w>
C ast
řá du.</w>
řek li</w>
ře tí,</w>
vědě li,</w>
vz duš
urych lit</w>
stri ctly</w>
sed m</w>
respe cted.</w>
regul arly</w>
problém em,</w>
potřeb ných</w>
posu z
pobí d
phar maceuti
out standing</w>
occa sion</w>
ně me</w>
nástro ji</w>
l :</w>
jedna k</w>
hun d
hund red</w>
harmon ise</w>
clea rer</w>
cest ovat</w>
amend ments.</w>
agen da,</w>
Ukrajin ě</w>
Ukrain e,</w>
Som ál
Pro střed
E T
všech ny.</w>
vzni k</w>
ubli n</w>
rozpočtov ého</w>
přeshrani čních</w>
před tím,</w>
priorit u</w>
pres sing</w>
potvr z
pota z</w>
podob ných</w>
partici pan
large -scale</w>
k rét
i a.</w>
hu žel,</w>
děl í</w>
dob y
do stávají</w>
di oxide</w>
ca ses.</w>
al ing</w>
Th an
Re form</w>
Offi ce</w>
D ublin</w>
ňov at.</w>
zápis u</w>
zasedá ní,</w>
u mír
ti mber</w>
subje ktů</w>
sol di
rozprav y,</w>
redundan cies</w>
přím ý</w>
poku s</w>
pod ní
plat nost,</w>
opo mí
new sp
muse l</w>
mainten ance</w>
m ;</w>
labe l</w>
incorpora ted</w>
hodno ta</w>
exist ujících</w>
examin ed</w>
ev a</w>
dlouhodob ý</w>
di vision</w>
con feren
cem bur
blí zk
b and</w>
Mercosu r</w>
G r
B ö
í te,</w>
zpo ždění</w>
výzku m,</w>
váž nou</w>
vio la
u žší</w>
u hod
stanov ila</w>
společnost em</w>
směrni cí</w>
si de.</w>
shap e</w>
regi me.</w>
recon ciliation</w>
probíha jící</w>
potřeb ovat</w>
poslan cům,</w>
náv rat</w>
migra ce</w>
ha ven
gu il
groun d.</w>
fo ster</w>
enshr ined</w>
cri me,</w>
con soli
b ound</w>
al one.</w>
Ukra inian</w>
Turke y.</w>
Tak ové</w>
Min ul
žád ám,</w>
Štrasbur ku</w>
ěj ším</w>
č ích</w>
č ně.</w>
účin něji</w>
základ ními</w>
zaměstná ní,</w>
za slou
wor ding</w>
věd í,</w>
usnad ní</w>
uni í.</w>
umož nily</w>
trest ných</w>
ten den
slov en
posel ství</w>
polo žil</w>
pokry te
ply nu
pi rát
pi cture</w>
na stal</w>
implementa tion.</w>
hlas ovat,</w>
even ing</w>
dod at,</w>
bý vá</w>
19 5
zá pla
zpravoda jem</w>
v stří
v ou.</w>
sna žili</w>
se ctoral</w>
s a</w>
renew ed</w>
recy kla
rec ru
re construction</w>
pomá h
otáz ek.</w>
od klad
obser ve</w>
návaz nosti</w>
nes s.</w>
mo ře,</w>
manufac turing</w>
ku p
kre tari
immigra tion.</w>
however .</w>
explan ation</w>
dow n.</w>
dispozi ci.</w>
con text.</w>
cele k</w>
Vy tvo
Luxem bour
G arri
získ al</w>
vyplý vá</w>
vy hodno
vnitrostát ního</w>
themsel ves,</w>
surroun ding</w>
solidar ita</w>
socio- economic</w>
sacri fi
ru ku</w>
ocho tu</w>
mobili tu</w>
mateř ské</w>
ká me</w>
kvó ty</w>
infrastruktur y,</w>
form a</w>
e t,</w>
draf tsman</w>
dluh opis
dis po
auster ity</w>
Německ u</w>
Kdy by</w>
Bý val
Bur ma</w>
úko ly</w>
é :</w>
zen í.</w>
visi ted</w>
t ních</w>
t ance</w>
svobod ně</w>
sou boru</w>
sdí lí</w>
přeprav y</w>
proto col</w>
prost oru.</w>
odmít nutí</w>
la ci</w>
ky ?</w>
k ovat</w>
ite ms</w>
is land</w>
g are
forest s</w>
ben ch
au tum
US A.</w>
Dohod y</w>
C ulture</w>
č e,</w>
ú z
volu me</w>
vhod ný</w>
vari ety</w>
upozor nila</w>
ty p</w>
technolo gy.</w>
so ld</w>
schváli l</w>
respe cts</w>
při vítat</w>
při cházejí</w>
poh led</w>
po star
otáz kách,</w>
of ob
naprost ou</w>
list ening</w>
le k
jakých koli</w>
inhabit ants</w>
groun d,</w>
elimin ation</w>
dáv at</w>
dost ala</w>
dospě t</w>
contra ct
confli ct.</w>
ambi tions</w>
Presid ents</w>
Ne jde</w>
Evrop a,</w>
B ,</w>
A mon
zpo ždě
vyu ži
vytvo řen</w>
vysok ých</w>
uvádě ní</w>
uveden o</w>
tion ?</w>
ten d</w>
te am</w>
smlu vní</w>
rozvinut ých</w>
roz liš
při šli</w>
program ming</w>
parlament ních</w>
ovzdu ší</w>
ovliv ňuje</w>
oval y.</w>
mar king</w>
li ked</w>
i c
hlas ovat.</w>
freedom .</w>
fak torem</w>
exper tise</w>
e ti
bohat ství</w>
Mě lo</w>
Mem ber,</w>
I L
Cypr us</w>
3 4</w>
úspor y</w>
zásad ní.</w>
znamen alo</w>
y '</w>
věce ch</w>
vykořisť ování</w>
ve k.</w>
uplat ňuje</w>
universi ties</w>
te ch.</w>
sa ,</w>
resu med</w>
referen da</w>
re sto
po škod
po mohli</w>
op posite</w>
om ,</w>
odstav ci</w>
nestač í.</w>
ne jedná</w>
m ere</w>
lu s</w>
jas ným</w>
ho f
hof stad
dá le.</w>
dvoustran né</w>
d at,</w>
chce te</w>
ce re
ali sing</w>
Ver hofstad
Mí sto</w>
K do</w>
G ul
če le</w>
vý chov
u šet
sti ck</w>
principle .</w>
po soud
po kládá
omezen é</w>
ná hod
need .</w>
ne šťast
kter é,</w>
journali sts</w>
investi čních</w>
hodno t,</w>
ha vári
del ší</w>
de plo
cle an
choi ces</w>
ac t.</w>
S M
Mě la</w>
J oh
F lor
Est on
201 5</w>
- year</w>
ří kám</w>
účin ného</w>
zkou š
vi ze</w>
u gh
tro ops</w>
t ter
sv é
stanoven y</w>
směrni ci,</w>
ru ské</w>
reform y,</w>
při dělování</w>
porozu mě
pobře ží</w>
neu věři
na z
leta d
led nu</w>
hovo ří
fund ing,</w>
fo sil
far maceu
fac to</w>
don u
budou cího</w>
ad vice</w>
Podpor a</w>
N ob
Jed na</w>
H el
F ri
Ž en
zer ba
zdravot ni
výbě ru</w>
un du
tu n</w>
test y</w>
se as</w>
mov ed</w>
mo tiva
mis sing</w>
kvali ta</w>
jednomysl ně</w>
ga ined</w>
dob ře.</w>
consolid ate</w>
co .</w>
chudob y,</w>
b ating</w>
awa re,</w>
as h</w>
SME s,</w>
N ové</w>
N emo
J os
zvíř at.</w>
war mly</w>
targe ts.</w>
summit ,</w>
si ve,</w>
s low</w>
pre c
použit y</w>
postup ů,</w>
po prav
pa ted</w>
o kru
o k
několi krát</w>
nejist ot
minori ties,</w>
mee ts</w>
imper ative</w>
fail s</w>
every body</w>
effici ently</w>
discus sion.</w>
communit y,</w>
bla ck
Strate gy,</w>
Monteneg ro</w>
Do y
žád áme</w>
člen ům</w>
v lo
univer zá
t ing
stres ses</w>
ste red</w>
shromažď ování</w>
scru tin
safeguar ds</w>
ro vi
ro li,</w>
původ u.</w>
pů dě</w>
před cháze
posou dit</w>
pokro čit</w>
podporu ji.</w>
podpor ující</w>
norma li
loň ském</w>
j ili</w>
j a
irregu lari
intenzi vní</w>
fo od,</w>
fe asi
de tain
de le
countri es'</w>
altern ativních</w>
Pak t</w>
Europe ans,</w>
Druh á</w>
8 %</w>
ří dí
če hož</w>
vzta hují</w>
te j
s it,</w>
rom ské</w>
probíha jí</w>
postup ů.</w>
pení ze,</w>
ová no,</w>
nevlád ních</w>
ku po
jour na
impe tus</w>
ho wever</w>
g ging</w>
fore most,</w>
focu ses</w>
efektiv ně</w>
b reaches</w>
Zá sad
Z důraz
Pod una
Je jí</w>
Citi zen
An ti
A ť</w>
14 9</w>
zabý vat.</w>
vyz val</w>
vpřed .</w>
un fortunate</w>
u vést,</w>
tou gh</w>
te li,</w>
swi f
stave c</w>
skon č
ri ed</w>
přines la</w>
při ví
port fo
ov a</w>
opětov né</w>
napě tí</w>
mož nosti,</w>
m koli</w>
liqui d
lear ned</w>
ke en</w>
fon du.</w>
enhan cing</w>
destro y</w>
bor n</w>
ab ý
Glob al</w>
201 5.</w>
žád ným</w>
žád ných</w>
zá leží</w>
zmí nil,</w>
ye t,</w>
vacc in
standar dů</w>
předlo žen
před kládat</w>
pursu ing</w>
pravomo ci,</w>
poznám ka</w>
por tation</w>
pokrač ující</w>
pamě ti</w>
ni ž</w>
ne rovnosti</w>
mo ther</w>
lep ším</w>
ku s</w>
ku jí</w>
komunika čních</w>
he avi
feder al</w>
e p</w>
dump ing</w>
contro l,</w>
ambi ce</w>
a man
Země děl
RE AC
Proced ure</w>
O ther</w>
C at
Ban k,</w>
š ti</w>
Španěl sko</w>
čem už</w>
zru š
vysvět lit</w>
ta min
t ých</w>
ro k.</w>
partne ři</w>
opatřen ími</w>
odůvod nění</w>
ni tel
ne me,</w>
model s</w>
ly :</w>
li ší</w>
energy -
en ded</w>
coordin ating</w>
ch y</w>
campaig ns</w>
by -
b ,</w>
ans wered</w>
achiev ements</w>
Wor king</w>
Trans par
Ná sled
Iran ,</w>
8 00</w>
. ,</w>
á ly</w>
získ ávání</w>
zločin y</w>
vě zni
vě cí.</w>
vešker ých</w>
představ it</w>
ne mám</w>
konz ist
interest ,</w>
institu cí.</w>
funk ční</w>
ent ly.</w>
divi ded</w>
dist ingu
differ enti
dan ý</w>
acces si
Wom en</w>
Jak á</w>
H an
F ond</w>
Be ij
Balká nu</w>
člán kem</w>
závaž ný</w>
ze k,</w>
wh el
u jící.</w>
ten tokrát</w>
tak en.</w>
svět ovém</w>
subje cted</w>
smyslu ,</w>
sel hání</w>
se kretari
scru tiny</w>
rá z
provi ders</w>
posto ji</w>
podpor y,</w>
pobře ž
partner ships</w>
oval y,</w>
nadě je</w>
m .)</w>
kla dy</w>
jednot nou</w>
inter governmental</w>
ho st</w>
fres h</w>
fos sil</w>
far -
cour ts</w>
bi om
bank s,</w>
P en
Ob viously,</w>
Makedoni e</w>
Environ ment</w>
Dů vod
Bo j</w>
Belaru s.</w>
Ar men
výrob ních</w>
tu je</w>
tra ce
t wi
pro hloub
practi ces.</w>
over whel
ord iná
oli k</w>
odpověd nosti.</w>
obje ctive.</w>
nedostat kem</w>
jednot ky</w>
je -li</w>
jd žá
herit age</w>
h ence</w>
fami liar</w>
dru gs</w>
do cela</w>
dispari ties</w>
corre ct
analy se</w>
Nor d</w>
Gen der</w>
Eu ra
š pi
ř i,</w>
with draw</w>
w an</w>
vý sky
stoup it</w>
stanov uje</w>
st or
re produk
re per
poji šť
pipe line</w>
p tion</w>
on es.</w>
odpověd ností</w>
narů sta
mě .</w>
minul ém</w>
mean s,</w>
li ability</w>
let é</w>
less on</w>
l ování</w>
l led</w>
k m</w>
in adequate</w>
go od.</w>
four th</w>
de klar
bor ne</w>
accu rate</w>
Nemo hu</w>
Hlasu ji</w>
3 1.</w>
2 3.</w>
znač nou</w>
zbý vá</w>
zabrá nilo</w>
využívá ny</w>
vy dat</w>
uspořád ání</w>
rá t</w>
ri d
působ it</w>
přist oupen
pro u
ologi cal</w>
o su
nezbyt ný</w>
invol ved,</w>
invi ted</w>
ge s.</w>
exclu ded</w>
dlu ž
condi tion
bili ty.</w>
activ ity.</w>
Pie bal
I ce
Guantána mo</w>
zásad y,</w>
zájm y.</w>
zvýšen é</w>
zru šit</w>
začá tkem</w>
zaveden a</w>
za ,</w>
vyžad uje,</w>
vyh ý
tisíci letí</w>
thou sand</w>
sekt oru,</w>
rou te</w>
re mem
poskytnut a</w>
očekáv at</w>
ost ud
onemoc nění</w>
ment 's</w>
komunika ce</w>
go ,</w>
gi r
exclu sive</w>
encoura ges</w>
di c</w>
de voted</w>
dang ers</w>
auton omi
St ream</w>
IND/DE M</w>
ště ní,</w>
řen é</w>
zem ře
výbě r</w>
vý ži
vrá cení</w>
upozor ňuje</w>
tě les
tr hem</w>
to :</w>
ter s,</w>
t nou</w>
struct ure
snad né</w>
se vropsk
rozhod nout,</w>
probí hat</w>
poby tu</w>
observ ation</w>
obchod ,</w>
ně -
mono pol
ko ordiná
jedn at,</w>
im bur
de fe
c ation,</w>
budouc nosti,</w>
bod ,</w>
blah oby
V o
T ou
T A
P ob
Ne t
Nalé ha
Mar tin
Ma astrich
Kosov a</w>
D ra
B at
we al
unanim ous</w>
u val
tu na</w>
stran ,</w>
st á</w>
s va
region ů.</w>
pé če.</w>
odbor níků</w>
obtain ing</w>
k ů
interne tu,</w>
inova ční</w>
fru stra
de vi
dan ého</w>
d ing.</w>
collap se</w>
billi ons</w>
back ground</w>
arbit r
Zvlášt ní</w>
WTO .</w>
NATO ,</w>
Bez peč
1 20</w>
z dokonal
vzděláv ací</w>
usu al</w>
ukáz alo,</w>
technolo gy,</w>
stě ž
sou stra
předcho zích</w>
potřeb nou</w>
oznámen í</w>
od bo
na mí
mu ch,</w>
komun it
in vit
hope fully</w>
gu n</w>
effor ts.</w>
dovo lené</w>
dist inc
deli ve
de sign</w>
T ý
Lithuani a</w>
K en
Georgi a,</w>
Freed om</w>
4 -
řen í.</w>
č ní,</w>
zad ruh
z í,</w>
tí m.</w>
tran z
skup iná
rozvin u
regula tions,</w>
pharmaceuti cal</w>
out lined</w>
ohro m
obyvatel .</w>
ná pad
nen áv
nar ro
maďar ského</w>
limit ing</w>
kon tamin
ho sti
h mo
fin ish</w>
explo it</w>
congratu lating</w>
compromis e,</w>
compar ison</w>
compar able</w>
circumstan ces.</w>
abu ses</w>
W ho</w>
U přím
O et
Institu te</w>
Flor en
účin ným</w>
zerba ij
výz va</w>
využit ím</w>
veřej ně</w>
trh ů,</w>
tion ;</w>
ti ous</w>
takov ém</w>
st ages</w>
sport u</w>
společ nost,</w>
spo jit</w>
self ,</w>
s družení</w>
qui ck</w>
při dané</w>
přest at</w>
pre zent
poin ts,</w>
p led
occa sions</w>
něj ž</w>
nucen i</w>
nezbyt ných</w>
ne stran
mu s.</w>
mistak es</w>
me rov
lep ších</w>
internet ových</w>
fundament ally</w>
e va
di ly</w>
den .</w>
bul har
assess ing</w>
arri ve</w>
ameri ckých</w>
accep tance</w>
Vel ké</w>
Posled ní</w>
Ochran a</w>
O pat
In stru
Afri ky</w>
A zerbaij
zásad ami</w>
zpravodaj ům,</w>
zač ne</w>
vidě t,</w>
transparent nosti,</w>
to ol
svrch ovan
smlou vě,</w>
schvá lit</w>
resid ence</w>
reje ction</w>
ran ging</w>
přistěhovalect ví.</w>
práve ch,</w>
pomá hají</w>
pl ore</w>
odvět v
obrá tit</w>
ob raz
ne mlu
gener ations</w>
disku se,</w>
bru tal</w>
al one,</w>
Palest ini
NATO .</w>
N y
Kav kaz
C al
Ber è
7 0%</w>
řeš it.</w>
zdra vé</w>
u trp
topi cs</w>
standar di
sr de
sol ved</w>
refer ences</w>
příspěv ku</w>
připrav uje</w>
potenci ální</w>
podstat né</w>
podep sá
po stupo
peop le
pas sing</w>
modi fied</w>
mist ake</w>
mal ou</w>
le ty,</w>
ing ;</w>
fo od.</w>
continu ation</w>
bio fuels</w>
are .</w>
aim ing</w>
Than ks</w>
Ko rea
Ch il
Bulg arian</w>
Appro val</w>
ži .</w>
za vedla</w>
t ný</w>
symbo l</w>
suggesti on</w>
star ých</w>
s lad
reinfor cing</w>
přístup u,</w>
předpis ech</w>
po nau
ori es</w>
on to</w>
ko liv
každ ému</w>
invest ed</w>
histori e</w>
g n
fon du,</w>
energetick y</w>
ekonomi ky.</w>
dv an
dec line</w>
condi tional</w>
change s.</w>
an t
Rad ou.</w>
C ould</w>
vdě čný</w>
tvo ři
treati es</w>
stran ou</w>
statu tu</w>
preziden tem</w>
požada vek,</w>
ovliv nit</w>
op i
no body</w>
ne znamená</w>
legislativ ním</w>
indi cation</w>
head s</w>
g ger</w>
ed ?</w>
chemi cal</w>
burden s</w>
ac compli
Znov u</w>
T cha
Sloven ia</w>
S event
Kyo to</w>
Kon krét
Contro l</w>
AC TA</w>
4 0
účin nosti,</w>
y a</w>
všeobec ně</w>
vyrovn at</w>
vy čerp
veřej nosti.</w>
to též</w>
tn ého</w>
tiv ních</w>
stabili sation</w>
st s.</w>
sou stav
sk i
seri óz
report s,</w>
případ né</w>
proti .</w>
prof it
produ ctiv
po št
organi zace.</w>
obje ctive,</w>
ne budu</w>
kvali fika
hroz bu</w>
effe ct.</w>
di ed</w>
ces s</w>
attra ctive</w>
agre es</w>
Po změ
Parlament .</w>
K jó
Dis ku
By li</w>
Belaru s,</w>
6 0%</w>
zk rá
w o
vě dom</w>
vní má
umož ňující</w>
u kládání</w>
subsequ ently</w>
stru č
se ction</w>
s bliž
přistupo vat</w>
přijí má</w>
pres ents</w>
po li</w>
plý t
peri ods</w>
muse la</w>
min or
mean ing
kov i</w>
integ rované</w>
initi ated</w>
exemp tion</w>
dovo lit,</w>
desi rable</w>
aspe cts,</w>
Verheu gen
Trans atlan
Lu cembur
Jed en</w>
A h
čtě j
Čer né</w>
způsob it</w>
zen ím</w>
zem ním</w>
zamě ření</w>
univerz it
un de
uh lí</w>
tran sevropsk
stej ného</w>
s ite</w>
rozpoče t,</w>
repres sion</w>
remar k
pozad í</w>
potí že</w>
perspe ctive.</w>
parlament y</w>
nedo káz
lid mi.</w>
leg e</w>
ir ské</w>
inno cent</w>
il leg
hledis ka.</w>
hand ling</w>
gra ss
f l
ekonomi ku</w>
dal ší
cí m,</w>
cour se.</w>
cohe sion,</w>
civi list
aspekt y,</w>
S ach
RO N
3 6</w>
ře d</w>
če lí
z ou
vy stup
velk ými</w>
va rování</w>
uží vání</w>
trh y,</w>
st ations</w>
slyše li</w>
sk em,</w>
rybolov ných</w>
respon ses</w>
re ch,</w>
pře bí
nábožen ských</w>
neleg álních</w>
kdy koli</w>
kar ty</w>
k ři
invest ment.</w>
dri ven</w>
dosáh lo</w>
clear :</w>
cha in</w>
With in</w>
W o
Jak ý</w>
4 8</w>
žit .</w>
úspěch ů</w>
vy mě
vy budování</w>
ur gen
unanim ously</w>
tribu ná
schop ností</w>
reserv ations</w>
reform s.</w>
question :</w>
působ ení</w>
proli fer
priorit ou.</w>
odpověd ný</w>
od kud</w>
obsa hují</w>
ni la.</w>
ni gh
nen í.</w>
má me,</w>
kom od
happen .</w>
excep tion</w>
envis aged</w>
dost aly</w>
discrimin atory</w>
ck ,</w>
bá jdžá
availab le.</w>
a ted,</w>
T en</w>
Pro gressive</w>
Brussel s.</w>
Belaru sian</w>
Alzhe i
Al ber
řád ného</w>
zjednodu šen
world wi
vyvá žený</w>
ukáz ala</w>
u ce
tick ým</w>
sel l</w>
rozprav u.</w>
rost lin
robu st</w>
re placed</w>
portfo li
podí lu</w>
nation al,</w>
kupřed u.</w>
kro k,</w>
judg ment</w>
imbalan ces</w>
hrani čních</w>
high- quality</w>
ekonomi cký</w>
děku ji.</w>
dispu tes</w>
concern s.</w>
con strain
com pu
cal .</w>
billi on,</w>
b arié
administrativ ních</w>
Re port</w>
Gul f</w>
Govern ment.</w>
Důležit é</w>
De leg
Ameri can
zdvoj násob
whole hear
we st
spravedliv ý</w>
sněmov ně,</w>
prost řed</w>
occu pi
nepro dlen
l ými</w>
konzulta cí</w>
ing ly,</w>
he sit
for med</w>
dam aging</w>
byrokraci e</w>
alar ming</w>
Th is,</w>
M edi
Irá ku</w>
D ár
B et
20 5
za star
z přís
z de,</w>
wor th
váž ně.</w>
uplatň ují</w>
tel ling</w>
t rop
stu d
sjednocen é</w>
remov al</w>
připomín ky</w>
přijm out,</w>
předlo žen</w>
pre text</w>
ost í,</w>
odsou dit</w>
na vig
na stav
moř ských</w>
lon ging</w>
květ nu</w>
krát ce</w>
hlubo ké</w>
govern ments.</w>
every day</w>
em ent
domá cího</w>
ct ví,</w>
clari fication</w>
cel and</w>
afri cké</w>
a polo
Yugosla v</w>
I celand</w>
Chcem e-li</w>
zařízen í,</w>
vyz vala</w>
vyvá žené</w>
sta vět</w>
soutěž e.</w>
regul ovat</w>
pří jem</w>
připra ven</w>
před ávání</w>
pur ch
projev u,</w>
poku sy</w>
podrob né</w>
pev né</w>
parti al</w>
nábožen ství</w>
nezbytn é.</w>
ne m.</w>
mí stech</w>
exist .</w>
es ca
dokon čit</w>
autom otive</w>
Ukrain e.</w>
S& D</w>
S ak
Pol sko</w>
N ový</w>
Mů žete</w>
ňov ací</w>
úmr tí</w>
závaž ným</w>
zpravoda je,</w>
zby tku</w>
z es
wom an</w>
vytvořen a</w>
vy bud
utrp ení</w>
str áv
sh el
poč tem</w>
potvr zuje</w>
po hon
p .</w>
měst ské</w>
livo sti</w>
i med</w>
glob álních</w>
examin ing</w>
eng agement</w>
důsled ky.</w>
dě tem</w>
dobr ého</w>
cop y
ci gare
c als</w>
argu e</w>
You th</w>
Sr i</w>
Sever ním</w>
O všem</w>
Committe e,</w>
Belgi um</w>
9 5</w>
zaruč it,</w>
volun te
vig il
v ence</w>
under stan
systém ů.</w>
sum mer</w>
stát ního</w>
sp end
smlou vě.</w>
shi ft</w>
scé ná
s pu
rod in</w>
quo te</w>
měst ě</w>
lu s
le r</w>
k ha
jud ge</w>
h our
h op
excu se</w>
dvan á
dota ce</w>
disast rous</w>
ckon ců</w>
Vyzý váme</w>
Cur r
Com peti
Brit ain</w>
Barcel ona</w>
9 %</w>
2 4.</w>
ček at</w>
účin nosti.</w>
zů stáv
ví tan
společ nému</w>
sledu je</w>
sdí len
rozprav u,</w>
péč e,</w>
posto j.</w>
podně tu</w>
peně z,</w>
oko lo</w>
ochran y,</w>
ná hrad
navrhu je,</w>
na zvan
la ying</w>
ky ni</w>
inspe k
follow -up</w>
en ding</w>
elder ly</w>
e cké</w>
do stanou</w>
detri ment</w>
dan ém</w>
chod em</w>
be it</w>
P E
Minul ý</w>
L ich
Komis í.</w>
Ini ti
Gree ce.</w>
Blaho přeji</w>
zaruč uje</w>
zapomí nej
za prvé</w>
uni fied</w>
transparent nost,</w>
thres hold</w>
t ová
sto letí.</w>
spoleh livé</w>
služ bám</w>
sligh tly</w>
ro u,</w>
report s.</w>
reper cus
pres erv
prepar ations</w>
poplat ků</w>
pode z
po cit</w>
po cház
ou red</w>
občan é,</w>
n ských</w>
inten tions</w>
horizon tu</w>
hled ě</w>
gener ated</w>
facili ty</w>
f ought</w>
eurozó ny,</w>
electri c</w>
compon ent</w>
candi dates</w>
baron ko</w>
Tcha j-
Navr hu
M anu
Lich ten
Chorvat ska</w>
10 0%</w>
'y es'</w>
záj mu.</w>
za pla
výsled ků.</w>
vyhlí dky</w>
vhod né,</w>
veřej ném</w>
vali d</w>
ty -
ti sti
t ini
subje cts</w>
st vo</w>
společen ské</w>
sour ces.</w>
soula d</w>
question s,</w>
pokrač uje</w>
parlia ment
ovat :</w>
náro dů.</w>
l l
komis í</w>
hovo řím</w>
fir st,</w>
dis proportionate</w>
bra t</w>
ab i
Společ ná</w>
SME s.</w>
Report :</w>
Le ban
J ou
Běloru sko</w>
Alzhe im
ří ž
ča su,</w>
Č ad
úto ků</w>
zabý váme</w>
ti t,</w>
tel ných</w>
rychle ji</w>
rou tes</w>
předpo kládá</w>
program ů,</w>
o sm
ní mž</w>
nejlep ších</w>
kon tra
jí -li</w>
jist ý,</w>
jak ého</w>
integra ce.</w>
hor ší</w>
hist ory.</w>
gamb ling</w>
fir ms</w>
f it</w>
dr žel</w>
do v</w>
discipl in
characteristi cs</w>
ch ?</w>
al beit</w>
ag e
Pro je
DP ,</w>
An y
zaměstná ní.</w>
withdraw al</w>
trh ů.</w>
rych le,</w>
pro -
persecu tion</w>
os m</w>
následu jící
ne vládní</w>
lus con
kom u</w>
hlav ního</w>
du m</w>
cla imed</w>
char ak
ač koliv</w>
availa bility</w>
ar my</w>
Po z
Made i
Kri ze</w>
C E
Afgh an</w>
ředitel ství</w>
úda je,</w>
závis lé</w>
výz vám</w>
vyso ko
vol bá
vi zi</w>
val o</w>
val ,</w>
u mí
transfer red</w>
ten s</w>
tan e
systém ů,</w>
strán ky</w>
sku tku</w>
ru ch
rozpoč ty</w>
restri ctive</w>
reces sion</w>
přistoup it</w>
přest o,</w>
přem í
pěst ování</w>
priori ties,</w>
prec arious</w>
pomo c
politick ém</w>
pev ný</w>
or s'</w>
odhod lan
náro dů,</w>
měsí ci</w>
min e</w>
lin ing</w>
kon čí</w>
kompromis u,</w>
kil ome
jedin ého</w>
im p
fun ctions</w>
feat ures</w>
dítě te</w>
dáv ají</w>
dro g
dohod ,</w>
do stává</w>
c ity,</w>
bu dov</w>
bu de,</w>
Střed omoř
P om
Other wise,</w>
J ist
Indi a,</w>
F ü
F is
Bu dou
Alzhei merov
ú mysl
zran ě
zaměstnan ců,</w>
zajíma vé</w>
z ní
všech no,</w>
vádě ní</w>
vzta hu
udržitel nou</w>
u ;</w>
trans action</w>
ter s.</w>
statisti ky</w>
schváli la</w>
rovno cen
princi pu</w>
po ží
po cti
osob ám</w>
naléha vou</w>
minist ři</w>
dů kazem</w>
dlou há</w>
conserv ation</w>
blo ck
b our</w>
assi stance,</w>
answ er.</w>
DP H
Ber luscon
zná sil
z vyk
z organiz
west ern</w>
vysvět lit,</w>
ta m
sí ly,</w>
sy mp
silni čního</w>
referendu m.</w>
principle s.</w>
pr vo
po cháze
pestici des</w>
ov ou,</w>
odvětví ch</w>
od stavec</w>
obyvatel ,</w>
nut í,</w>
n oucí</w>
monopo ly</w>
heavi ly</w>
h s</w>
ent s'</w>
dosa huje</w>
ck ých,</w>
bo w
anti bio
a i</w>
UE N.</w>
Ne jsem</w>
N el
L E
Hovo říme</w>
Ferrero-Wal dne
Declar ation</w>
B 7-0
říka jí,</w>
ú tv
v čas</w>
sub -
slov a,</w>
re a</w>
ra dy.</w>
při dru
před klá
pozor nost,</w>
poskyt li</w>
plat form</w>
ně :</w>
kritéri a,</w>
em ents,</w>
da ys.</w>
Klí č
CO 2,</w>
3 )</w>
á tu</w>
zá zna
war ran
war ming</w>
věnov ala</w>
teroristi ckých</w>
tal ,</w>
ser ves</w>
se e,</w>
refor m,</w>
read ing,</w>
proved itel
prost oru,</w>
politi kami</w>
podporov ala</w>
ozná m
order .</w>
obvin ění</w>
ne rovnová
m ed
lete ch.</w>
incor porate</w>
in stance</w>
hrani ce,</w>
execu tive</w>
establish es</w>
er -
důsled ků</w>
dostup nost</w>
diplom aci
dialogu ,</w>
den oun
cor ner
byd lení</w>
bad ly</w>
ac y.</w>
Ve řej
Thurs day</w>
T řetí</w>
Pro gress</w>
Druh ý</w>
Decem ber,</w>
1 )</w>
wh at
výzkum né</w>
výjim kou</w>
up gra
umož ní,</w>
the -
spect rum</w>
soud ních</w>
smě ry</w>
s qu
přeh nan
pursu ant</w>
průbě ž
pre fer</w>
pow ers,</w>
paralle l</w>
oper a
od soud
ochran u.</w>
nat ure.</w>
muse ly</w>
mit ting</w>
ish ing</w>
hrani ce.</w>
hla vy</w>
finan čně</w>
finan ci
em ic</w>
dovo lte,</w>
dost al</w>
dohod nout</w>
dist ur
di stance</w>
conclu des</w>
b all</w>
a )</w>
Secre tar
Parlamen tem,</w>
žád oucí</w>
říj nu</w>
ň me</w>
část ku</w>
ú zemí.</w>
změ nit.</w>
wat ers</w>
w ages</w>
všu de</w>
va rov
toxi c</w>
spr ing</w>
sociali sti
secur ing</w>
růz ná</w>
roz děl
relea sed</w>
re imbur
ra tion
ra ke
pre limin
požadav ku</w>
poplat níků</w>
op pres
ofici álně</w>
odpověď ,</w>
o gen
násled ovat</w>
migra ční</w>
l ům</w>
k :</w>
enab led</w>
dohle du,</w>
demonstra tion</w>
d ou,</w>
ch ý
cel ku</w>
blí že</w>
ari ans</w>
amend ment,</w>
Zá klad
Výsled ky</w>
Un til</w>
Mul ti
M lu
Ch i
čtvr t
červen ci</w>
vo ters</w>
usil ov
tri es</w>
to ra
spe k
sly šení</w>
sil ná</w>
re ch.</w>
přesvěd čení</w>
publi c,</w>
odmít á</w>
mem oran
may be</w>
lep šího</w>
ir respective</w>
investig ations</w>
inf lation</w>
h l</w>
follow s</w>
far .</w>
experi ences</w>
elektro nické</w>
dot čených</w>
compen s
cen y,</w>
bo ost
ap pal
addres ses</w>
Ví táme</w>
Upřím ně</w>
G y
Fran couz
By ly</w>
A ir
Ž eny</w>
čís la</w>
č ným</w>
úpl nou</w>
úda jně</w>
we igh
t ent
swi ft</w>
stru ck</w>
speci ali
se ch</w>
práv o,</w>
princi py</w>
pilí ř
ostat ně</w>
occu r</w>
obje ktivní</w>
ní ků,</w>
ná rok</w>
ni ght</w>
medi a,</w>
me ch,</w>
legiti mit
klíč ová</w>
každ ým</w>
job .</w>
hodno tě</w>
fish eri
ex changes</w>
en force</w>
disman t
ch el
celosvět ovém</w>
b rea
alle vi
agentur y,</w>
Y em
Skup iny</w>
Sevent h</w>
SOLVI T</w>
Při jetí</w>
Ir ska</w>
Fun ctioning</w>
where ver</w>
weak nes
východ ním</w>
vyhlí d
v inc
u red</w>
směř ující</w>
smar t</w>
ro k,</w>
rest im
připomen u
přes né</w>
prv ků</w>
prelimin ary</w>
požadav kům</w>
postup ,</w>
pora d
poplat ky</w>
per mitted</w>
očekáv á</w>
obsa žené</w>
ob tí
ně ji,</w>
nor thern</w>
nech á
má ,</w>
mani fe
ma chin
m b
lid skými</w>
l é,</w>
l kov
jedn ala</w>
hun ger</w>
excep t</w>
druh ým</w>
defini ci</w>
committe e.</w>
chud ých</w>
cent u
bez odklad
be gun</w>
Z cela</w>
Ur č
Proced ure.</w>
Constitu tion</w>
Budge ts</w>
Amon g</w>
Alex an
A y
5 )</w>
ztrá tu</w>
zmi ňuje</w>
zeměděl ského</w>
vš í</w>
vy v
va lid
u sed,</w>
tra in</w>
summit .</w>
su ms</w>
st vím,</w>
roz tří
ro us
předlo ženy</w>
on y
odpovída jí</w>
och rá
oce á
nástroj em,</w>
nejdůležitěj ším</w>
ne chceme</w>
na jevo</w>
na je</w>
mlu ví</w>
milli on,</w>
il legally</w>
far ms</w>
ever -
erro rs</w>
enough ,</w>
en ý</w>
důležit osti</w>
dv ak
dostateč nou</w>
do týká</w>
con vinc
ce l</w>
budou -li</w>
aktiv it</w>
aircra ft</w>
acknowled ged</w>
absolu tně</w>
WTO ,</w>
Tibe t</w>
Společ ně</w>
S tal
Maďar sku</w>
B .</w>
- W
- Ru
zapotřeb í,</w>
zamý š
z mra
wai ver</w>
uni í,</w>
undertak ings</w>
un certain
reti rement</w>
requ iring</w>
rec tions</w>
předsedajíc í</w>
prohlá sit,</w>
podni ku</w>
očekáv at,</w>
ně jaká</w>
ní ?</w>
ny nější</w>
non- governmental</w>
nej dříve.</w>
m ation</w>
ká ,</w>
kter é
iz ol
investig ate</w>
investi ce,</w>
hrub ého</w>
good s,</w>
g ab
fir my</w>
fal se</w>
fa ces</w>
explicit ly</w>
dot čené</w>
disku si,</w>
ban á
Zimbab we
Naléha vě</w>
( 2)</w>
část ka</w>
ý ri
ý m.</w>
závaž ných</w>
zatý k
z vě
z rych
victi ms.</w>
uni ons</w>
třetí ho</w>
tvor bě</w>
stan e,</w>
seri ously.</w>
se as
r gy
poznamen at,</w>
post rá
podně t</w>
ni zozem
nedostateč ně</w>
na hraz
man ner,</w>
kontro lov
kilome tr
k es</w>
invest ment,</w>
initi ally</w>
indi cates</w>
elimin ating</w>
ed :</w>
důvod y,</w>
ck é.</w>
chap ter</w>
V ám</w>
V oting</w>
Stockhol m
Spo lu
RON TE
Nedáv no</w>
M y,</w>
Herzegov ina</w>
Čer ného</w>
úrov ních</w>
zvyš ovat</w>
z ované</w>
vysí lá</w>
tvor bu</w>
trans mission</w>
ti an</w>
sup ply.</w>
stanovis ku</w>
sk ry
road s</w>
resul ts,</w>
radi k
pursu ed</w>
pro vedla</w>
poptáv ky</w>
ohrož ují</w>
odstra ňování</w>
né ho.</w>
les ů</w>
issu ing</w>
is e,</w>
inter ference</w>
e ro
cest ování</w>
celkov ou</w>
af gh
Par ti
Musli m</w>
Kos ovo.</w>
Ir sku,</w>
I TE
C ost
Ange li
4 4</w>
řek li,</w>
ře tě
če ské</w>
Írá n</w>
zátě že</w>
zk rát
witnes sed</w>
what so
u jícími</w>
tou ch</w>
sta ven</w>
sov ě
smr ti,</w>
si ve.</w>
s vaz
s ovi</w>
s ing.</w>
ru ce</w>
rozhov ory</w>
připust it,</w>
prosaz uje</w>
postav ení,</w>
[...]
